{
  "version": "1.0",
  "truncation": null,
  "padding": null,
  "added_tokens": [
    {
      "id": 0,
      "content": "<pad>",
      "single_word": false,
      "lstrip": false,
      "rstrip": false,
      "normalized": false,
      "special": true
    },
    {
      "id": 1,
      "content": "<bos>",
      "single_word": false,
      "lstrip": false,
      "rstrip": false,
      "normalized": false,
      "special": true
    },
    {
      "id": 2,
      "content": "<eos>",
      "single_word": false,
      "lstrip": false,
      "rstrip": false,
      "normalized": false,
      "special": true
    },
    {
      "id": 3,
      "content": "<unk>",
      "single_word": false,
      "lstrip": false,
      "rstrip": false,
      "normalized": false,
      "special": true
    }
  ],
  "normalizer": {
    "type": "Sequence",
    "normalizers": [
      {
        "type": "NFC"
      }
    ]
  },
  "pre_tokenizer": {
    "type": "ByteLevel",
    "add_prefix_space": false,
    "trim_offsets": true,
    "use_regex": true
  },
  "post_processor": null,
  "decoder": {
    "type": "ByteLevel",
    "add_prefix_space": true,
    "trim_offsets": true,
    "use_regex": true
  },
  "model": {
    "type": "BPE",
    "dropout": null,
    "unk_token": "<unk>",
    "continuing_subword_prefix": null,
    "end_of_word_suffix": null,
    "fuse_unk": false,
    "byte_fallback": false,
    "ignore_merges": false,
    "vocab": {
      "<pad>": 0,
      "<bos>": 1,
      "<eos>": 2,
      "<unk>": 3,
      "!": 4,
      "\"": 5,
      "#": 6,
      "$": 7,
      "%": 8,
      "&": 9,
      "'": 10,
      "(": 11,
      ")": 12,
      "*": 13,
      "+": 14,
      ",": 15,
      "-": 16,
      ".": 17,
      "/": 18,
      "0": 19,
      "1": 20,
      "2": 21,
      "3": 22,
      "4": 23,
      "5": 24,
      "6": 25,
      "7": 26,
      "8": 27,
      "9": 28,
      ":": 29,
      ";": 30,
      "<": 31,
      "=": 32,
      ">": 33,
      "?": 34,
      "@": 35,
      "A": 36,
      "B": 37,
      "C": 38,
      "D": 39,
      "E": 40,
      "F": 41,
      "G": 42,
      "H": 43,
      "I": 44,
      "J": 45,
      "K": 46,
      "L": 47,
      "M": 48,
      "N": 49,
      "O": 50,
      "P": 51,
      "Q": 52,
      "R": 53,
      "S": 54,
      "T": 55,
      "U": 56,
      "V": 57,
      "W": 58,
      "X": 59,
      "Y": 60,
      "Z": 61,
      "[": 62,
      "\\": 63,
      "]": 64,
      "^": 65,
      "_": 66,
      "`": 67,
      "a": 68,
      "b": 69,
      "c": 70,
      "d": 71,
      "e": 72,
      "f": 73,
      "g": 74,
      "h": 75,
      "i": 76,
      "j": 77,
      "k": 78,
      "l": 79,
      "m": 80,
      "n": 81,
      "o": 82,
      "p": 83,
      "q": 84,
      "r": 85,
      "s": 86,
      "t": 87,
      "u": 88,
      "v": 89,
      "w": 90,
      "x": 91,
      "y": 92,
      "z": 93,
      "{": 94,
      "|": 95,
      "}": 96,
      "~": 97,
      "¡": 98,
      "¢": 99,
      "£": 100,
      "¤": 101,
      "¥": 102,
      "¦": 103,
      "§": 104,
      "¨": 105,
      "©": 106,
      "ª": 107,
      "«": 108,
      "¬": 109,
      "®": 110,
      "¯": 111,
      "°": 112,
      "±": 113,
      "²": 114,
      "³": 115,
      "´": 116,
      "µ": 117,
      "¶": 118,
      "·": 119,
      "¸": 120,
      "¹": 121,
      "º": 122,
      "»": 123,
      "¼": 124,
      "½": 125,
      "¾": 126,
      "¿": 127,
      "À": 128,
      "Á": 129,
      "Â": 130,
      "Ã": 131,
      "Ä": 132,
      "Å": 133,
      "Æ": 134,
      "Ç": 135,
      "È": 136,
      "É": 137,
      "Ê": 138,
      "Ë": 139,
      "Ì": 140,
      "Í": 141,
      "Î": 142,
      "Ï": 143,
      "Ð": 144,
      "Ñ": 145,
      "Ò": 146,
      "Ó": 147,
      "Ô": 148,
      "Õ": 149,
      "Ö": 150,
      "×": 151,
      "Ø": 152,
      "Ù": 153,
      "Ú": 154,
      "Û": 155,
      "Ü": 156,
      "Ý": 157,
      "Þ": 158,
      "ß": 159,
      "à": 160,
      "á": 161,
      "â": 162,
      "ã": 163,
      "ä": 164,
      "å": 165,
      "æ": 166,
      "ç": 167,
      "è": 168,
      "é": 169,
      "ê": 170,
      "ë": 171,
      "ì": 172,
      "í": 173,
      "î": 174,
      "ï": 175,
      "ð": 176,
      "ñ": 177,
      "ò": 178,
      "ó": 179,
      "ô": 180,
      "õ": 181,
      "ö": 182,
      "÷": 183,
      "ø": 184,
      "ù": 185,
      "ú": 186,
      "û": 187,
      "ü": 188,
      "ý": 189,
      "þ": 190,
      "ÿ": 191,
      "Ā": 192,
      "ā": 193,
      "Ă": 194,
      "ă": 195,
      "Ą": 196,
      "ą": 197,
      "Ć": 198,
      "ć": 199,
      "Ĉ": 200,
      "ĉ": 201,
      "Ċ": 202,
      "ċ": 203,
      "Č": 204,
      "č": 205,
      "Ď": 206,
      "ď": 207,
      "Đ": 208,
      "đ": 209,
      "Ē": 210,
      "ē": 211,
      "Ĕ": 212,
      "ĕ": 213,
      "Ė": 214,
      "ė": 215,
      "Ę": 216,
      "ę": 217,
      "Ě": 218,
      "ě": 219,
      "Ĝ": 220,
      "ĝ": 221,
      "Ğ": 222,
      "ğ": 223,
      "Ġ": 224,
      "ġ": 225,
      "Ģ": 226,
      "ģ": 227,
      "Ĥ": 228,
      "ĥ": 229,
      "Ħ": 230,
      "ħ": 231,
      "Ĩ": 232,
      "ĩ": 233,
      "Ī": 234,
      "ī": 235,
      "Ĭ": 236,
      "ĭ": 237,
      "Į": 238,
      "į": 239,
      "İ": 240,
      "ı": 241,
      "Ĳ": 242,
      "ĳ": 243,
      "Ĵ": 244,
      "ĵ": 245,
      "Ķ": 246,
      "ķ": 247,
      "ĸ": 248,
      "Ĺ": 249,
      "ĺ": 250,
      "Ļ": 251,
      "ļ": 252,
      "Ľ": 253,
      "ľ": 254,
      "Ŀ": 255,
      "ŀ": 256,
      "Ł": 257,
      "ł": 258,
      "Ń": 259,
      "he": 260,
      "Ġt": 261,
      "Ġa": 262,
      "Ġs": 263,
      "Ġw": 264,
      "nd": 265,
      "Ġthe": 266,
      "ed": 267,
      "Ġand": 268,
      "Ġto": 269,
      "Ġb": 270,
      "in": 271,
      "Ġh": 272,
      "Ġwa": 273,
      "re": 274,
      "ou": 275,
      "Ġf": 276,
      "it": 277,
      "ĠT": 278,
      "Ġl": 279,
      "Ġc": 280,
      "Ġd": 281,
      "er": 282,
      "Ġhe": 283,
      "Ġm": 284,
      "Ġp": 285,
      "Ġwas": 286,
      "om": 287,
      "Ġo": 288,
      "ĠThe": 289,
      "ay": 290,
      "ar": 291,
      "is": 292,
      "ing": 293,
      "il": 294,
      "Ġg": 295,
      "id": 296,
      "ĠS": 297,
      "at": 298,
      "en": 299,
      "Ġn": 300,
      "Ġsa": 301,
      "Ġha": 302,
      "an": 303,
      "im": 304,
      "or": 305,
      "on": 306,
      "Ġit": 307,
      "ĠH": 308,
      "Ġth": 309,
      "ll": 310,
      "Ġ\"": 311,
      "le": 312,
      "ot": 313,
      "ĠShe": 314,
      "Ġher": 315,
      "et": 316,
      "ir": 317,
      "ĠHe": 318,
      "ĠThey": 319,
      "es": 320,
      "Ġin": 321,
      "ver": 322,
      "ut": 323,
      "ow": 324,
      "ck": 325,
      "ĠL": 326,
      "Ġe": 327,
      "Ġu": 328,
      "Ġy": 329,
      "ld": 330,
      "oo": 331,
      "ily": 332,
      "Ġsaid": 333,
      "ig": 334,
      "Ġr": 335,
      "ĠI": 336,
      "Ġbe": 337,
      "am": 338,
      "Ġst": 339,
      "ke": 340,
      "ce": 341,
      "ve": 342,
      "ith": 343,
      "pp": 344,
      "Ġshe": 345,
      "Ġwith": 346,
      "On": 347,
      "Ġon": 348,
      "ĠLily": 349,
      "Ġyou": 350,
      "ked": 351,
      "Ġof": 352,
      "ri": 353,
      "Ġpl": 354,
      "nt": 355,
      "Ġhis": 356,
      "ĠB": 357,
      "ad": 358,
      "Ġso": 359,
      "very": 360,
      "Ġday": 361,
      "Ġthat": 362,
      "Ġup": 363,
      "Ġplay": 364,
      "Ġhad": 365,
      "Ġthey": 366,
      "st": 367,
      "Ġwe": 368,
      "Ġmom": 369,
      "Ġfor": 370,
      "el": 371,
      "ĠM": 372,
      "un": 373,
      "ould": 374,
      "'s": 375,
      "my": 376,
      "Ġli": 377,
      "ch": 378,
      "Ġhapp": 379,
      "Ġwant": 380,
      "ent": 381,
      "Ġsh": 382,
      "itt": 383,
      "her": 384,
      "out": 385,
      "Ġnot": 386,
      "Ġdo": 387,
      "ome": 388,
      "se": 389,
      "Ġvery": 390,
      "ly": 391,
      "end": 392,
      "all": 393,
      "ound": 394,
      "Ġwh": 395,
      "Ġk": 396,
      "ime": 397,
      "ittle": 398,
      "Ġtime": 399,
      "al": 400,
      "Ġlittle": 401,
      "Ġne": 402,
      "Ġthere": 403,
      "ht": 404,
      "Ġis": 405,
      "ĠIt": 406,
      "Ġhappy": 407,
      "Ġbig": 408,
      "ĠA": 409,
      "Ġre": 410,
      "Ġsm": 411,
      "Ġbut": 412,
      "Ġsaw": 413,
      "ĠĠ": 414,
      "Ġan": 415,
      "ra": 416,
      "ry": 417,
      "riend": 418,
      ".\"": 419,
      "Ġfriend": 420,
      "Ġas": 421,
      "ack": 422,
      "One": 423,
      "ide": 424,
      "ake": 425,
      "ug": 426,
      "'t": 427,
      "!\"": 428,
      "ĠTim": 429,
      "Ġloo": 430,
      "Ġwere": 431,
      "ter": 432,
      "ved": 433,
      "Ġlo": 434,
      "ore": 435,
      "Once": 436,
      "ĠOne": 437,
      "Ġse": 438,
      "Ġtoo": 439,
      "Ġhim": 440,
      "Ġbo": 441,
      "Ġgo": 442,
      "Ġare": 443,
      "ec": 444,
      "ĠJ": 445,
      "Ġj": 446,
      "Ġwanted": 447,
      "ard": 448,
      "ill": 449,
      "irl": 450,
      "Ġthem": 451,
      "Ġupon": 452,
      "Ġgirl": 453,
      "Ġtheir": 454,
      "Ġout": 455,
      "Ġat": 456,
      "ĠBen": 457,
      "ind": 458,
      "ur": 459,
      "Ġdid": 460,
      "way": 461,
      "fu": 462,
      "Ġsp": 463,
      "ĠTom": 464,
      "Ġcould": 465,
      "Ġsmil": 466,
      "hen": 467,
      "Ġhave": 468,
      "ain": 469,
      "hed": 470,
      "art": 471,
      "rom": 472,
      "Ġex": 473,
      "Ġcan": 474,
      "Ġwent": 475,
      "ic": 476,
      "Ġar": 477,
      "ĠW": 478,
      "lp": 479,
      "ood": 480,
      "ful": 481,
      "ĠBut": 482,
      "Ġfriends": 483,
      "?\"": 484,
      "hing": 485,
      "Ġnam": 486,
      "Ġkn": 487,
      "ight": 488,
      "Ġhelp": 489,
      "Ġsay": 490,
      "Ġall": 491,
      "one": 492,
      "um": 493,
      "ark": 494,
      "Ġback": 495,
      "You": 496,
      "Ġfun": 497,
      "Ġcl": 498,
      "are": 499,
      "Ġno": 500,
      "Ġle": 501,
      "ĠTimmy": 502,
      "op": 503,
      "Ġsc": 504,
      "Ġnamed": 505,
      "Ġal": 506,
      "elt": 507,
      "oug": 508,
      "Ġman": 509,
      "Ġloved": 510,
      "side": 511,
      "Ġsmiled": 512,
      "Ġtoy": 513,
      "Ġlike": 514,
      "ick": 515,
      "Ġfelt": 516,
      "Ġasked": 517,
      "Ġfe": 518,
      "Ġsome": 519,
      "Ġsee": 520,
      "Ġlooked": 521,
      "Ġme": 522,
      "ame": 523,
      "Ġaround": 524,
      "Ġro": 525,
      "omet": 526,
      "ure": 527,
      "Ġbr": 528,
      "Ġbir": 529,
      "get": 530,
      "ice": 531,
      "Ġboy": 532,
      "Ġwould": 533,
      "ong": 534,
      "Ġstart": 535,
      "as": 536,
      "Ġbird": 537,
      "Ġsomet": 538,
      "ings": 539,
      "Ġfa": 540,
      "ade": 541,
      "Ġmake": 542,
      "Ġag": 543,
      "Ġwhat": 544,
      "Ġwor": 545,
      "ĠYou": 546,
      "dd": 547,
      ",\"": 548,
      "Ġsays": 549,
      "ĠMom": 550,
      "king": 551,
      "Ġran": 552,
      "Ġaway": 553,
      "own": 554,
      "gether": 555,
      "Ġtre": 556,
      "Ã¢": 557,
      "âĤ": 558,
      "âĤ¬": 559,
      "ag": 560,
      "ared": 561,
      "ie": 562,
      "oud": 563,
      "Ġmade": 564,
      "Ġstarted": 565,
      "if": 566,
      "Ġcar": 567,
      "Ġtogether": 568,
      "Ġsomething": 569,
      "Ġco": 570,
      "ther": 571,
      "Ġpark": 572,
      "Ġsad": 573,
      "Ġother": 574,
      "ited": 575,
      "Ġput": 576,
      "Ġnew": 577,
      "Ġfrom": 578,
      "ell": 579,
      "Ġhug": 580,
      "ĠE": 581,
      "Ġpr": 582,
      "ble": 583,
      "Ġagain": 584,
      "ook": 585,
      "Ġexc": 586,
      "ach": 587,
      "Ġgood": 588,
      "Ġhome": 589,
      "Ġla": 590,
      "Ġmu": 591,
      "ĠF": 592,
      "ss": 593,
      "Ġwhen": 594,
      "Ġfl": 595,
      "ried": 596,
      "ep": 597,
      "Ġwho": 598,
      "est": 599,
      "Ġthen": 600,
      "Ġfound": 601,
      "Ġch": 602,
      "Ġdec": 603,
      "pped": 604,
      "hat": 605,
      "Ġget": 606,
      "Ġwal": 607,
      "Ġplaying": 608,
      "qu": 609,
      "Ġsw": 610,
      "ought": 611,
      "nn": 612,
      "Ġliked": 613,
      "uck": 614,
      "ĠD": 615,
      "Ġthings": 616,
      "ally": 617,
      "pl": 618,
      "ous": 619,
      "ĠSu": 620,
      "Ġgot": 621,
      "Ġbl": 622,
      "Ġexcited": 623,
      "ro": 624,
      "ĠSam": 625,
      "ided": 626,
      "ave": 627,
      "Ġcame": 628,
      "ara": 629,
      "Ġevery": 630,
      "Ġdecided": 631,
      "Ġyour": 632,
      "Ġdog": 633,
      "ax": 634,
      "Ġscared": 635,
      "Ġone": 636,
      "Ġdown": 637,
      "ust": 638,
      "Ġv": 639,
      "Ġfind": 640,
      "Ġcare": 641,
      "nna": 642,
      "ouse": 643,
      "ap": 644,
      "Ġbec": 645,
      "ist": 646,
      "Ġthan": 647,
      "ny": 648,
      "Ġfeel": 649,
      "Ġdad": 650,
      "Ġab": 651,
      "Ġwill": 652,
      "Ġmy": 653,
      "arn": 654,
      "Ġlook": 655,
      "our": 656,
      "Ġgr": 657,
      "ers": 658,
      "Ġke": 659,
      "Ġgra": 660,
      "ĠMax": 661,
      "Ġdidn": 662,
      "ways": 663,
      "ess": 664,
      "Ġpo": 665,
      "Ġtoys": 666,
      "Ġtook": 667,
      "fe": 668,
      "nder": 669,
      "Ġabout": 670,
      "Ġball": 671,
      "Ġalways": 672,
      "Ġlot": 673,
      "Ġmommy": 674,
      "ant": 675,
      "ĠSara": 676,
      "Ġkne": 677,
      "bb": 678,
      "Ġbu": 679,
      "Ġtree": 680,
      "ise": 681,
      "Ġoutside": 682,
      "ĠAnna": 683,
      "Ġthought": 684,
      "ite": 685,
      "Ġmore": 686,
      "Ġta": 687,
      "ĠSo": 688,
      "ened": 689,
      "Ġlearn": 690,
      "ret": 691,
      "Ġho": 692,
      "ched": 693,
      "Ġknow": 694,
      "eci": 695,
      "Ġpu": 696,
      "Ġint": 697,
      "ged": 698,
      "Ġsor": 699,
      "ĠWhen": 700,
      "Ġcat": 701,
      "Ġlaug": 702,
      "Ġtake": 703,
      "Ġold": 704,
      "ive": 705,
      "ia": 706,
      "Ġspeci": 707,
      "Ġspecial": 708,
      "Ġknew": 709,
      "Ġany": 710,
      "Ġpe": 711,
      "ĠHer": 712,
      "dden": 713,
      "fter": 714,
      "au": 715,
      "Ġhow": 716,
      "Ġsorry": 717,
      "Ġtr": 718,
      "ma": 719,
      "ink": 720,
      "Ġshow": 721,
      "ish": 722,
      "ddenly": 723,
      "Ġrun": 724,
      "Ġsl": 725,
      "Ġmuch": 726,
      "Ġtw": 727,
      "Ġhand": 728,
      "and": 729,
      "ĠJo": 730,
      "ĠEvery": 731,
      "Ġor": 732,
      "Ġhouse": 733,
      "Ġop": 734,
      "Ġmo": 735,
      "Ġwater": 736,
      "Ġsk": 737,
      "ven": 738,
      "Ġtried": 739,
      "Ġinto": 740,
      "Ġsun": 741,
      "ank": 742,
      "ĠJack": 743,
      "Ġinside": 744,
      "Ġclo": 745,
      "ate": 746,
      "here": 747,
      "Ġtold": 748,
      "Ġgave": 749,
      "ump": 750,
      "ty": 751,
      "Ġproud": 752,
      "Ġeach": 753,
      "Ġqu": 754,
      "Ġen": 755,
      "ĠWe": 756,
      "Ġif": 757,
      "Ġover": 758,
      "Ġroom": 759,
      "Ġcouldn": 760,
      "Ġheard": 761,
      "ace": 762,
      "Ġnever": 763,
      "Ġeat": 764,
      "Ġthis": 765,
      "Ġpret": 766,
      "other": 767,
      "dy": 768,
      "ause": 769,
      "by": 770,
      "ak": 771,
      "Ġplayed": 772,
      "ĠMia": 773,
      "Ġpick": 774,
      "ion": 775,
      "sed": 776,
      "etter": 777,
      "Ġhugged": 778,
      "Ġexpl": 779,
      "ge": 780,
      "ĠThen": 781,
      "ĠSuddenly": 782,
      "Ġcom": 783,
      "Ġgre": 784,
      "Ġjust": 785,
      "Ġnice": 786,
      "Ġbox": 787,
      "ĠFrom": 788,
      "Ġmany": 789,
      "Ġneed": 790,
      "Ġwat": 791,
      "oth": 792,
      "Ġstr": 793,
      "Ġbecause": 794,
      "Ġoff": 795,
      "ue": 796,
      "ĠAnd": 797,
      "ile": 798,
      "'m": 799,
      "gry": 800,
      "Ġsmall": 801,
      "iz": 802,
      "ĠHis": 803,
      "ving": 804,
      "Ġlong": 805,
      "Ġjo": 806,
      "Ġsn": 807,
      "ine": 808,
      "Ġfo": 809,
      "imal": 810,
      "Ġanimal": 811,
      "Ġbear": 812,
      "Ġtry": 813,
      "ough": 814,
      "uc": 815,
      "ort": 816,
      "urt": 817,
      "Ġlearned": 818,
      "Ġunt": 819,
      "sel": 820,
      "ild": 821,
      "Ġlove": 822,
      "Ġuntil": 823,
      "ĠC": 824,
      "Ġkind": 825,
      "ft": 826,
      "Ġbetter": 827,
      "Ġflow": 828,
      "Ġte": 829,
      "Ġend": 830,
      "Ġim": 831,
      "urn": 832,
      "Ġdon": 833,
      "ves": 834,
      "Ġcle": 835,
      "Ġcall": 836,
      "Ġbest": 837,
      "ady": 838,
      "ars": 839,
      "ream": 840,
      "aut": 841,
      "Ġad": 842,
      "Yes": 843,
      "vent": 844,
      "Ġfast": 845,
      "Ġcareful": 846,
      "urp": 847,
      "arden": 848,
      "Ġgarden": 849,
      "Ġbeaut": 850,
      "Ġfi": 851,
      "Ġcu": 852,
      "ber": 853,
      "Ġsky": 854,
      "Ġthanked": 855,
      "Ġbra": 856,
      "Ġjump": 857,
      "Ġeven": 858,
      "ies": 859,
      "Ġloud": 860,
      "ase": 861,
      "pt": 862,
      "Ġby": 863,
      "Ġlaughed": 864,
      "em": 865,
      "Ġche": 866,
      "ĠÃ¢": 867,
      "iny": 868,
      "wn": 869,
      "self": 870,
      "Th": 871,
      "Ġgl": 872,
      "lly": 873,
      "Ġlist": 874,
      "Ġcome": 875,
      "Ġbeauti": 876,
      "Ġhard": 877,
      "Ġstill": 878,
      "Ġhurt": 879,
      "lew": 880,
      "Ġbeautiful": 881,
      "Ġanimals": 882,
      "Ġlots": 883,
      "Ġfam": 884,
      "Ġway": 885,
      "Ġwo": 886,
      "Åĵ": 887,
      "Ġra": 888,
      "Ġunder": 889,
      "hes": 890,
      "Ġlet": 891,
      "Ġstay": 892,
      "be": 893,
      "ect": 894,
      "Ġbad": 895,
      "ning": 896,
      "ct": 897,
      "Ġsafe": 898,
      "ĠP": 899,
      "sh": 900,
      "Ġcol": 901,
      "ool": 902,
      "ast": 903,
      "Ġboth": 904,
      "ople": 905,
      "ock": 906,
      "It": 907,
      "kay": 908,
      "Ġrem": 909,
      "Ġbook": 910,
      "Ġangry": 911,
      "Ġlived": 912,
      "ished": 913,
      "Ġits": 914,
      "Ġimp": 915,
      "ree": 916,
      "ĠAs": 917,
      "ress": 918,
      "Ġtwo": 919,
      "Ġpeople": 920,
      "ane": 921,
      "Ġbrave": 922,
      "Ġfamily": 923,
      "Ġshould": 924,
      "No": 925,
      "Ġred": 926,
      "urpr": 927,
      "igh": 928,
      "ĠAfter": 929,
      "Ġwalked": 930,
      "Ġsu": 931,
      "Ġsurpr": 932,
      "Ġflew": 933,
      "Ġfin": 934,
      "Ġstor": 935,
      "Ġshare": 936,
      "Ġdan": 937,
      "Ġsoon": 938,
      "ucy": 939,
      "Ġfly": 940,
      "ob": 941,
      "xt": 942,
      "ĠLucy": 943,
      "Ġpic": 944,
      "Ġdoll": 945,
      "fore": 946,
      "led": 947,
      "Ġkept": 948,
      "Ġcalled": 949,
      "ip": 950,
      "Ġfore": 951,
      "Ġrock": 952,
      "Let": 953,
      "Ġclean": 954,
      "Ġpretty": 955,
      "ised": 956,
      "Ġdoor": 957,
      "dded": 958,
      "Ġshiny": 959,
      "ĠJoh": 960,
      "Ġgoing": 961,
      "Ġkeep": 962,
      "Ġdra": 963,
      "Ġnoise": 964,
      "ĠG": 965,
      "Ġnow": 966,
      "Ġreal": 967,
      "Ġwind": 968,
      "ĠDad": 969,
      "Ġopened": 970,
      "Ġadvent": 971,
      "Ġturn": 972,
      "ummy": 973,
      "Ġide": 974,
      "ary": 975,
      "so": 976,
      "Ġcry": 977,
      "ĠMommy": 978,
      "Ġbefore": 979,
      "Ġcon": 980,
      "age": 981,
      "Ġground": 982,
      "Ġalso": 983,
      "Ġsto": 984,
      "les": 985,
      "âĤ¬â": 986,
      "illy": 987,
      "Ġey": 988,
      "Ġcolor": 989,
      "Ġexplore": 990,
      "ied": 991,
      "Ġfar": 992,
      "Ġhas": 993,
      "Ġidea": 994,
      "Ġfr": 995,
      "ĠSp": 996,
      "kes": 997,
      "imb": 998,
      "Ġwar": 999,
      "th": 1000,
      "ture": 1001,
      "Ġun": 1002,
      "What": 1003,
      "thing": 1004,
      "Ġnext": 1005,
      "Ġpicked": 1006,
      "Ġclimb": 1007,
      "Ġnodded": 1008,
      "aybe": 1009,
      "Ġsmile": 1010,
      "Ġthr": 1011,
      "oy": 1012,
      "Ġfeeling": 1013,
      "Ġtruck": 1014,
      "Ġwhile": 1015,
      "Ġbed": 1016,
      "Ġwalking": 1017,
      "Ħ¢": 1018,
      "âĤ¬âĦ¢": 1019,
      "eet": 1020,
      "Ġwr": 1021,
      "Ġadventure": 1022,
      "ger": 1023,
      "Thank": 1024,
      "Ġpicture": 1025,
      "ĠJohn": 1026,
      "ac": 1027,
      "ĠBob": 1028,
      "Ġbeing": 1029,
      "Ġthink": 1030,
      "Ġgive": 1031,
      "Ġfood": 1032,
      "Ġma": 1033,
      "ff": 1034,
      "iced": 1035,
      "Ġtra": 1036,
      "Ġdif": 1037,
      "That": 1038,
      "Ġbre": 1039,
      "joy": 1040,
      "Ġbro": 1041,
      "Ġtow": 1042,
      "ted": 1043,
      "ious": 1044,
      "Ġlisten": 1045,
      "Ġclos": 1046,
      "Ġeyes": 1047,
      "Ġwait": 1048,
      "ught": 1049,
      "ĠN": 1050,
      "Ġown": 1051,
      "Ġfish": 1052,
      "Ġstopped": 1053,
      "Ġafter": 1054,
      "Ġlooking": 1055,
      "ting": 1056,
      "Ġflowers": 1057,
      "ĠSpot": 1058,
      "ember": 1059,
      "Ġdel": 1060,
      "Ġwalk": 1061,
      "Ġhands": 1062,
      "ĠSue": 1063,
      "ĠR": 1064,
      "Ġblue": 1065,
      "ized": 1066,
      "Ġslide": 1067,
      "Ġshout": 1068,
      "Ġrepl": 1069,
      "Ġgreat": 1070,
      "Ġever": 1071,
      "Lily": 1072,
      "Ġmean": 1073,
      "Ġenjoy": 1074,
      "Ġvo": 1075,
      "Ġhead": 1076,
      "irst": 1077,
      "ila": 1078,
      "oon": 1079,
      "Ġrain": 1080,
      "Ġnear": 1081,
      "Ġnoticed": 1082,
      "Ġdis": 1083,
      "Ġforest": 1084,
      "Ġus": 1085,
      "Ġask": 1086,
      "Ġimport": 1087,
      "Ġquick": 1088,
      "Ġremember": 1089,
      "bbit": 1090,
      "Ġsound": 1091,
      "Ġapp": 1092,
      "llow": 1093,
      "Ġokay": 1094,
      "Ġde": 1095,
      "maz": 1096,
      "Ġwork": 1097,
      "Ġwonder": 1098,
      "Ġshowed": 1099,
      "Ġru": 1100,
      "Ġamaz": 1101,
      "Ġtal": 1102,
      "lease": 1103,
      "Ġstick": 1104,
      "Ġtou": 1105,
      "Ġwatch": 1106,
      "Ġimportant": 1107,
      "bbed": 1108,
      "bye": 1109,
      "Ġstrong": 1110,
      "We": 1111,
      "gan": 1112,
      "Ġac": 1113,
      "Ġeveryone": 1114,
      "Ġbright": 1115,
      "day": 1116,
      "fere": 1117,
      "Ġrabbit": 1118,
      "Ġdiffere": 1119,
      "Ġboat": 1120,
      "Ġour": 1121,
      "Ġreplied": 1122,
      "Ġsqu": 1123,
      "Ġwhere": 1124,
      "Ġright": 1125,
      "Ġfollow": 1126,
      "Ġuse": 1127,
      "Ġdoes": 1128,
      "co": 1129,
      "Ġwatched": 1130,
      "able": 1131,
      "Ġhop": 1132,
      "Ġyell": 1133,
      "Ġface": 1134,
      "ath": 1135,
      "Ġmor": 1136,
      "Ġquickly": 1137,
      "Look": 1138,
      "ered": 1139,
      "Ġstore": 1140,
      "Ġdress": 1141,
      "Ġsure": 1142,
      "Ġbeen": 1143,
      "Ġbecame": 1144,
      "ange": 1145,
      "Ġplace": 1146,
      "ĠTh": 1147,
      "ng": 1148,
      "Ġdifferent": 1149,
      "Ġchild": 1150,
      "Ġcuri": 1151,
      "aught": 1152,
      "ĠSarah": 1153,
      "Ġwarm": 1154,
      "Ġye": 1155,
      "Ġgoodbye": 1156,
      "Ġam": 1157,
      "Ġmag": 1158,
      "Ġhigh": 1159,
      "Ġvoice": 1160,
      "Ġforg": 1161,
      "Ġblock": 1162,
      "Ġtell": 1163,
      "Ġcake": 1164,
      "more": 1165,
      "Ġanymore": 1166,
      "leep": 1167,
      "ndma": 1168,
      "ĠJane": 1169,
      "Ġcloser": 1170,
      "Ġcook": 1171,
      "Ġcurious": 1172,
      "itc": 1173,
      "Ġfav": 1174,
      "Ġbel": 1175,
      "ount": 1176,
      "Ġnight": 1177,
      "Ġpull": 1178,
      "Ġopen": 1179,
      "ey": 1180,
      "ired": 1181,
      "imes": 1182,
      "Ġlea": 1183,
      "ached": 1184,
      "Ġpain": 1185,
      "iss": 1186,
      "Ġfirst": 1187,
      "Ġz": 1188,
      "Ġbutter": 1189,
      "Ġhere": 1190,
      "Ġfell": 1191,
      "Ġkid": 1192,
      "ull": 1193,
      "Ġgrabbed": 1194,
      "Ġsees": 1195,
      "Can": 1196,
      "unny": 1197,
      "Ġsweet": 1198,
      "orn": 1199,
      "Ġonly": 1200,
      "Ġflo": 1201,
      "itchen": 1202,
      "Ġkitchen": 1203,
      "Ġthree": 1204,
      "Ġsand": 1205,
      "ĠEveryone": 1206,
      "Ġhelped": 1207,
      "Ġbirds": 1208,
      "ĠIn": 1209,
      "Ġstop": 1210,
      "Ġdr": 1211,
      "Ġcont": 1212,
      "Ġcra": 1213,
      "Ġbit": 1214,
      "ĠLila": 1215,
      "Ġba": 1216,
      "Ġhappened": 1217,
      "Ġjumped": 1218,
      "Ġglad": 1219,
      "Ġfire": 1220,
      "Mom": 1221,
      "Ġmon": 1222,
      "ppy": 1223,
      "ĠThat": 1224,
      "Ġsing": 1225,
      "Ġbeh": 1226,
      "Ġgrass": 1227,
      "Ġtri": 1228,
      "ĠDo": 1229,
      "Ġper": 1230,
      "Ġcr": 1231,
      "Ġbrother": 1232,
      "Ġrealized": 1233,
      "isy": 1234,
      "Ġstory": 1235,
      "Ġshouted": 1236,
      "air": 1237,
      "Ġreached": 1238,
      "Ġmess": 1239,
      "Ġsoft": 1240,
      "akes": 1241,
      "ĠLet": 1242,
      "ass": 1243,
      "Ġyummy": 1244,
      "Ġlady": 1245,
      "Ġgame": 1246,
      "ins": 1247,
      "Ġhaving": 1248,
      "nts": 1249,
      "Ġdraw": 1250,
      "Ġate": 1251,
      "Ġhat": 1252,
      "Ġprin": 1253,
      "Ġpretend": 1254,
      "zy": 1255,
      "Ġpap": 1256,
      "Ġthrough": 1257,
      "Ġfavor": 1258,
      "Ġunderst": 1259,
      "'re": 1260,
      "where": 1261,
      "Ġcre": 1262,
      "Ġless": 1263,
      "Ġrest": 1264,
      "Ġfavorite": 1265,
      "Ġready": 1266,
      "ater": 1267,
      "Ġthing": 1268,
      "Ġlooks": 1269,
      "ken": 1270,
      "Ġmaking": 1271,
      "ather": 1272,
      "ĠCan": 1273,
      "Ġkids": 1274,
      "Ġmagic": 1275,
      "Ġreally": 1276,
      "Ġduck": 1277,
      "Ġpare": 1278,
      "Ġtired": 1279,
      "Ġpond": 1280,
      "Ġfix": 1281,
      "Ġcars": 1282,
      "ĠJoe": 1283,
      "Ġcut": 1284,
      "Ġworld": 1285,
      "Wow": 1286,
      "Ġdone": 1287,
      "Ġbegan": 1288,
      "Ġmum": 1289,
      "Ġbunny": 1290,
      "Ġwaved": 1291,
      "bo": 1292,
      "Ġhimself": 1293,
      "Ġcatch": 1294,
      "Ġbutterf": 1295,
      "Ġcoming": 1296,
      "Ġtouch": 1297,
      "Ġfunny": 1298,
      "Ġcried": 1299,
      "Ġused": 1300,
      "fully": 1301,
      "Ġworry": 1302,
      "Ġpart": 1303,
      "Ġwhy": 1304,
      "ĠFin": 1305,
      "Ġprom": 1306,
      "Ġname": 1307,
      "ign": 1308,
      "Ġblocks": 1309,
      "Ġanother": 1310,
      "Ġfill": 1311,
      "Ġste": 1312,
      "Tom": 1313,
      "Ġflower": 1314,
      "Ġhold": 1315,
      "Ġfro": 1316,
      "Ġhair": 1317,
      "Ġtast": 1318,
      "Ġtop": 1319,
      "Ġseen": 1320,
      "Ġcool": 1321,
      "ster": 1322,
      "oney": 1323,
      "Ġswim": 1324,
      "rel": 1325,
      "Ġwished": 1326,
      "eddy": 1327,
      "iver": 1328,
      "Ġthank": 1329,
      "Ġmouse": 1330,
      "Ġfloor": 1331,
      "Ġlight": 1332,
      "Ġgreen": 1333,
      "Ġbag": 1334,
      "ient": 1335,
      "Ġdelic": 1336,
      "Ġlikes": 1337,
      "Ġgi": 1338,
      "Ġpaper": 1339,
      "Ġsmell": 1340,
      "Ġfarm": 1341,
      "Ġparents": 1342,
      "Ġbehind": 1343,
      "ation": 1344,
      "hy": 1345,
      "ĠTommy": 1346,
      "Ġlesson": 1347,
      "Ġdri": 1348,
      "olly": 1349,
      "Ġsurprise": 1350,
      "Ġdoing": 1351,
      "Don": 1352,
      "ĠSally": 1353,
      "Ġhopped": 1354,
      "Ġdro": 1355,
      "Ġbow": 1356,
      "Ġworked": 1357,
      "Ġsleep": 1358,
      "Ġhole": 1359,
      "ards": 1360,
      "Ġwindow": 1361,
      "uff": 1362,
      "andy": 1363,
      "Ġyellow": 1364,
      "Ġread": 1365,
      "Ġtrees": 1366,
      "Ġdark": 1367,
      "Ġdin": 1368,
      "Ġfull": 1369,
      "Ġsho": 1370,
      "Ġlaugh": 1371,
      "Ġrunning": 1372,
      "aisy": 1373,
      "ued": 1374,
      "ike": 1375,
      "ely": 1376,
      "ĠBenny": 1377,
      "Ġcold": 1378,
      "ren": 1379,
      "Ġswing": 1380,
      "rew": 1381,
      "Ġsat": 1382,
      "Ġspot": 1383,
      "Ġwood": 1384,
      "us": 1385,
      "\".": 1386,
      "Ġsurprised": 1387,
      "ul": 1388,
      "Ġslow": 1389,
      "Ġremembered": 1390,
      "aring": 1391,
      "Ġ-": 1392,
      "Ġbutterfly": 1393,
      "Ġhappily": 1394,
      "Ġset": 1395,
      "Ġlost": 1396,
      "Ġneeded": 1397,
      "ons": 1398,
      "Ġyears": 1399,
      "Ġice": 1400,
      "Ġheld": 1401,
      "Ġbuy": 1402,
      "Hell": 1403,
      "Hello": 1404,
      "Ġmove": 1405,
      "Ġfrog": 1406,
      "Ġanything": 1407,
      "Ġwrong": 1408,
      "Ġcarefully": 1409,
      "ĠAt": 1410,
      "Ġsnow": 1411,
      "Ġhear": 1412,
      "Ġleft": 1413,
      "Ġtall": 1414,
      "Ġhun": 1415,
      "ĠEm": 1416,
      "ens": 1417,
      "Ġperf": 1418,
      "Ġdir": 1419,
      "Ġdream": 1420,
      "Ġfair": 1421,
      "Ġfollowed": 1422,
      "ĠNow": 1423,
      "ĠK": 1424,
      "Ġair": 1425,
      "Ġenjoyed": 1426,
      "Ġel": 1427,
      "Ġfinished": 1428,
      "Ġcast": 1429,
      "Ġchildren": 1430,
      "cess": 1431,
      "Ġbug": 1432,
      "Ġbooks": 1433,
      "Ġhot": 1434,
      "Ġtable": 1435,
      "ined": 1436,
      "ĠFinally": 1437,
      "Ġherself": 1438,
      "Ġhill": 1439,
      "Ġhid": 1440,
      "ĠDaisy": 1441,
      "Ġbus": 1442,
      "reed": 1443,
      "Ġarri": 1444,
      "Ġfriendly": 1445,
      "Ġunderstand": 1446,
      "ds": 1447,
      "Ġarm": 1448,
      "Ġcontin": 1449,
      "Ġclose": 1450,
      "Ġplease": 1451,
      "Ġforgot": 1452,
      "ĠTo": 1453,
      "ross": 1454,
      "Ġmight": 1455,
      "Ġcolors": 1456,
      "ĠGra": 1457,
      "Ġelse": 1458,
      "ĠBilly": 1459,
      "Ġdelicious": 1460,
      "Ġbroken": 1461,
      "Ġbuild": 1462,
      "ĠJen": 1463,
      "Ġwants": 1464,
      "asure": 1465,
      "sp": 1466,
      "Ġrel": 1467,
      "lf": 1468,
      "ash": 1469,
      "Ġgone": 1470,
      "Ġgent": 1471,
      "ield": 1472,
      "OK": 1473,
      "Ġbaby": 1474,
      "room": 1475,
      "atter": 1476,
      "Ġarrived": 1477,
      "Ġcreat": 1478,
      "Ġtight": 1479,
      "Ġable": 1480,
      "Ġleaves": 1481,
      "Ġsong": 1482,
      "Ġwonderful": 1483,
      "ĠThere": 1484,
      "Ġsomeone": 1485,
      "Ġyes": 1486,
      "Ġwall": 1487,
      "Ġsquir": 1488,
      "ner": 1489,
      "Ġfilled": 1490,
      "av": 1491,
      "Ġgu": 1492,
      "ĠThis": 1493,
      "ĠJim": 1494,
      "Ġcontinued": 1495,
      "ich": 1496,
      "ask": 1497,
      "Ġlion": 1498,
      "Ġcount": 1499,
      "Ġbreak": 1500,
      "Ġsquirrel": 1501,
      "Ġagreed": 1502,
      "Ġju": 1503,
      "Ġpink": 1504,
      "ĠMaybe": 1505,
      "Ġscary": 1506,
      "ĠAmy": 1507,
      "Ġpoin": 1508,
      "Ġfall": 1509,
      "Ġenough": 1510,
      "shed": 1511,
      "Ġcastle": 1512,
      "icy": 1513,
      "ee": 1514,
      "ries": 1515,
      "man": 1516,
      "Ġgrandma": 1517,
      "Ġvis": 1518,
      "Ġstayed": 1519,
      "Ġhungry": 1520,
      "Ġmakes": 1521,
      "Ġmoment": 1522,
      "Ġmorning": 1523,
      "Ġsmiles": 1524,
      "'ll": 1525,
      "Ġfinally": 1526,
      "Ġwet": 1527,
      "Ġfight": 1528,
      "Ġcomp": 1529,
      "Ġcookies": 1530,
      "Ġgetting": 1531,
      "oup": 1532,
      "Ġturned": 1533,
      "Ġsometimes": 1534,
      "gon": 1535,
      "app": 1536,
      "row": 1537,
      "Ġpictures": 1538,
      "Ġpi": 1539,
      "Ġtalk": 1540,
      "Ġbeach": 1541,
      "rot": 1542,
      "Ġcream": 1543,
      "ama": 1544,
      "ĠMolly": 1545,
      "Ġclimbed": 1546,
      "ĠWhat": 1547,
      "Ġothers": 1548,
      "Ġtrying": 1549,
      "Ġclot": 1550,
      "Ġballoon": 1551,
      "Ġlistened": 1552,
      "oom": 1553,
      "Ġdinner": 1554,
      "Ġamazing": 1555,
      "Ġtail": 1556,
      "Ġclothes": 1557,
      "ced": 1558,
      "Ġmus": 1559,
      "ere": 1560,
      "Ġfew": 1561,
      "ance": 1562,
      "apped": 1563,
      "Ġmar": 1564,
      "Ġmet": 1565,
      "Ġpuppy": 1566,
      "lc": 1567,
      "Ġmother": 1568,
      "ence": 1569,
      "Ġdaddy": 1570,
      "Ġperfect": 1571,
      "oring": 1572,
      "amp": 1573,
      "Ġasks": 1574,
      "Ġspl": 1575,
      "Ġwhite": 1576,
      "key": 1577,
      "red": 1578,
      "Ġfur": 1579,
      "Ġalone": 1580,
      "ctor": 1581,
      "uffy": 1582,
      "Ġpet": 1583,
      "Ġsail": 1584,
      "Ġwasn": 1585,
      "ucky": 1586,
      "Ġsit": 1587,
      "Ġbrought": 1588,
      "Ġeverything": 1589,
      "The": 1590,
      "Ġsear": 1591,
      "ister": 1592,
      "Ġpol": 1593,
      "der": 1594,
      "Ġjoy": 1595,
      "Oh": 1596,
      "Ġgrow": 1597,
      "ott": 1598,
      "Ġroll": 1599,
      "Ġstrange": 1600,
      "Ġpulled": 1601,
      "ated": 1602,
      "Ġwaited": 1603,
      "Ġpie": 1604,
      "wl": 1605,
      "Ġspark": 1606,
      "Ġdeep": 1607,
      "Ġride": 1608,
      "ĠJill": 1609,
      "Ġdanger": 1610,
      "Ġwoods": 1611,
      "But": 1612,
      "Ġplan": 1613,
      "Ġwon": 1614,
      "Ġruns": 1615,
      "Ġleave": 1616,
      "Ġmusic": 1617,
      "me": 1618,
      "Ġthinks": 1619,
      "Ġamazed": 1620,
      "This": 1621,
      "Ġvisit": 1622,
      "zz": 1623,
      "ower": 1624,
      "Ġhide": 1625,
      "ang": 1626,
      "Ġteddy": 1627,
      "Ġcloud": 1628,
      "eter": 1629,
      "ĠSoon": 1630,
      "Maybe": 1631,
      "Ġfox": 1632,
      "Ġpat": 1633,
      "os": 1634,
      "ever": 1635,
      "Ġpen": 1636,
      "Ġsilly": 1637,
      "ugg": 1638,
      "Ġliving": 1639,
      "Ġflying": 1640,
      "ope": 1641,
      "Ġshap": 1642,
      "Ġem": 1643,
      "Ġtowards": 1644,
      "gs": 1645,
      "Ġtreat": 1646,
      "Ġowner": 1647,
      "med": 1648,
      "ames": 1649,
      "ises": 1650,
      "ĠAll": 1651,
      "thy": 1652,
      "Ġpre": 1653,
      "Ġside": 1654,
      "Okay": 1655,
      "Ġland": 1656,
      "Ġgrate": 1657,
      "Ġfield": 1658,
      "Ġlake": 1659,
      "Ġshared": 1660,
      "ained": 1661,
      "Ġqui": 1662,
      "Ġmoney": 1663,
      "Ġpaint": 1664,
      "cket": 1665,
      "igg": 1666,
      "Ġfaster": 1667,
      "Ġparty": 1668,
      "Ġpromised": 1669,
      "Ġgrateful": 1670,
      "Ġsister": 1671,
      "Ġbelie": 1672,
      "Ġdance": 1673,
      "Ġbott": 1674,
      "Ġrace": 1675,
      "avy": 1676,
      "Ġmoral": 1677,
      "ix": 1678,
      "eces": 1679,
      "Ġcup": 1680,
      "cle": 1681,
      "Ġtreasure": 1682,
      "Ġbroke": 1683,
      "Ġpieces": 1684,
      "Ġcandy": 1685,
      "Ġjob": 1686,
      "ĠFl": 1687,
      "Ġquiet": 1688,
      "Ġworried": 1689,
      "unch": 1690,
      "Ġblank": 1691,
      "Ġcolorful": 1692,
      "sw": 1693,
      "Ġtrain": 1694,
      "ze": 1695,
      "Ġbigger": 1696,
      "Ġbran": 1697,
      "Ġansw": 1698,
      "Ġslowly": 1699,
      "orm": 1700,
      "Ġwear": 1701,
      "outh": 1702,
      "Ġgif": 1703,
      "Ġdolls": 1704,
      "Ġwelc": 1705,
      "ually": 1706,
      "ĠDaddy": 1707,
      "Ġblanket": 1708,
      "Ġreach": 1709,
      "Ġmouth": 1710,
      "ling": 1711,
      "Ġmust": 1712,
      "Ġve": 1713,
      "uit": 1714,
      "Ġsnack": 1715,
      "ol": 1716,
      "Ġsuch": 1717,
      "Ġcho": 1718,
      "ĠMr": 1719,
      "fort": 1720,
      "Ġbike": 1721,
      "Ġeverywhere": 1722,
      "Ġele": 1723,
      "Ġsmart": 1724,
      "Ġscream": 1725,
      "ased": 1726,
      "Ġpro": 1727,
      "Ġblack": 1728,
      "Mommy": 1729,
      "less": 1730,
      "ph": 1731,
      "Ġriver": 1732,
      "ire": 1733,
      "Ġnap": 1734,
      "Ġplant": 1735,
      "Ġbar": 1736,
      "Ġjoin": 1737,
      "Ġstu": 1738,
      "Ġmagical": 1739,
      "Ġje": 1740,
      "Ġpot": 1741,
      "Ġsign": 1742,
      "Ġprincess": 1743,
      "Ġdangerous": 1744,
      "Ġhelping": 1745,
      "ĠJust": 1746,
      "Ġwin": 1747,
      "Ġpa": 1748,
      "cked": 1749,
      "Ġthrew": 1750,
      "set": 1751,
      "Ġdirty": 1752,
      "ming": 1753,
      "Ġcarrot": 1754,
      "Ġtwins": 1755,
      "Ġbowl": 1756,
      "Ġdragon": 1757,
      "Ġcrying": 1758,
      "Ġtower": 1759,
      "ipped": 1760,
      "Ġbite": 1761,
      "Ġhoped": 1762,
      "Ġdoctor": 1763,
      "ored": 1764,
      "Sure": 1765,
      "Ġmost": 1766,
      "Ġteac": 1767,
      "Ġspr": 1768,
      "ident": 1769,
      "Ġsame": 1770,
      "Ġfarmer": 1771,
      "Ġheavy": 1772,
      "Ġbee": 1773,
      "Ġwords": 1774,
      "Ġmonster": 1775,
      "ĠMary": 1776,
      "Ġacc": 1777,
      "Ġmonkey": 1778,
      "bble": 1779,
      "ear": 1780,
      "de": 1781,
      "Ġheal": 1782,
      "Ġacross": 1783,
      "Ġcoll": 1784,
      "Ġbath": 1785,
      "ĠMama": 1786,
      "Ben": 1787,
      "Why": 1788,
      "Ġdisapp": 1789,
      "Hi": 1790,
      "Ġbuck": 1791,
      "Ġhig": 1792,
      "Ġfruit": 1793,
      "Ġstepped": 1794,
      "Ġstre": 1795,
      "Ġclosed": 1796,
      "Ġstuck": 1797,
      "eared": 1798,
      "Ġheart": 1799,
      "Ġtown": 1800,
      "Ġfeels": 1801,
      "chool": 1802,
      "Ġbelieve": 1803,
      "Ġwouldn": 1804,
      "asket": 1805,
      "ĠGrandma": 1806,
      "Ġbasket": 1807,
      "Ġmix": 1808,
      "Ġteacher": 1809,
      "Ġcray": 1810,
      "Ġcour": 1811,
      "Ġbutt": 1812,
      "Ġatt": 1813,
      "Ġeating": 1814,
      "Ġhit": 1815,
      "Ġschool": 1816,
      "iting": 1817,
      "Ġchair": 1818,
      "Ġpushed": 1819,
      "ĠEmma": 1820,
      "Ġbrown": 1821,
      "Ġyard": 1822,
      "Ġgentle": 1823,
      "Ġpack": 1824,
      "Ġmin": 1825,
      "Ġcourse": 1826,
      "Ġneigh": 1827,
      "Ġwithout": 1828,
      "br": 1829,
      "Ġclapped": 1830,
      "issed": 1831,
      "ord": 1832,
      "ts": 1833,
      "umb": 1834,
      "Ġhigher": 1835,
      "Ġpers": 1836,
      "pping": 1837,
      "Ġsmo": 1838,
      "Ġsec": 1839,
      "Ġneighb": 1840,
      "Ġswings": 1841,
      "Ġaccident": 1842,
      "Ġfairy": 1843,
      "ier": 1844,
      "vel": 1845,
      "Ġtoday": 1846,
      "orrow": 1847,
      "Ġgames": 1848,
      "Ġwelcome": 1849,
      "Anna": 1850,
      "Ġdry": 1851,
      "ĠInside": 1852,
      "Ġstand": 1853,
      "Ġnoises": 1854,
      "ors": 1855,
      "Ġdrove": 1856,
      "Ġpocket": 1857,
      "Ġthrow": 1858,
      "ventually": 1859,
      "Ġsuddenly": 1860,
      "Ġforget": 1861,
      "Ġlon": 1862,
      "Ġturns": 1863,
      "Ġhugs": 1864,
      "Ġpiece": 1865,
      "Ġcheered": 1866,
      "ĠTheir": 1867,
      "ract": 1868,
      "Ġfree": 1869,
      "Ġben": 1870,
      "Ġlonely": 1871,
      "Ġfence": 1872,
      "Ġhappen": 1873,
      "Ġwings": 1874,
      "cy": 1875,
      "ĠWh": 1876,
      "ourn": 1877,
      "Ġneck": 1878,
      "Ġjourn": 1879,
      "Ġlonger": 1880,
      "Ġsang": 1881,
      "ible": 1882,
      "ead": 1883,
      "Ġexplained": 1884,
      "Ġsea": 1885,
      "Ġalong": 1886,
      "Ġsoup": 1887,
      "Ġcorn": 1888,
      "Ġstories": 1889,
      "Ġlate": 1890,
      "Ġupset": 1891,
      "Ġwell": 1892,
      "itting": 1893,
      "Ġshoes": 1894,
      "Ġinst": 1895,
      "Ġsecret": 1896,
      "Ġadventures": 1897,
      "Ġmiss": 1898,
      "Ġmat": 1899,
      "ĠFluffy": 1900,
      "Ġstars": 1901,
      "Ġtrou": 1902,
      "Ġcaught": 1903,
      "phant": 1904,
      "Ġwhe": 1905,
      "ches": 1906,
      "Ġsinging": 1907,
      "Ġph": 1908,
      "Ġrocks": 1909,
      "oun": 1910,
      "Ġbucket": 1911,
      "Ġlunch": 1912,
      "ape": 1913,
      "ces": 1914,
      "Ġswam": 1915,
      "Ġdropped": 1916,
      "Ġdist": 1917,
      "Ġwish": 1918,
      "Ġyoung": 1919,
      "Ġshook": 1920,
      "ocked": 1921,
      "ĠOn": 1922,
      "Ġdrink": 1923,
      "Ġelephant": 1924,
      "Ġbring": 1925,
      "Ġmoved": 1926,
      "yard": 1927,
      "ment": 1928,
      "Ġplac": 1929,
      "Ġbelong": 1930,
      "Ġjuice": 1931,
      "Ġnaught": 1932,
      "ountain": 1933,
      "ĠThank": 1934,
      "Ġstar": 1935,
      "ĠMum": 1936,
      "Ġnaughty": 1937,
      "Ġbackyard": 1938,
      "ek": 1939,
      "llo": 1940,
      "Ġmine": 1941,
      "ĠJimmy": 1942,
      "fused": 1943,
      "Ġjar": 1944,
      "Ġstreet": 1945,
      "ĠO": 1946,
      "bow": 1947,
      "Ġtom": 1948,
      "Ġpast": 1949,
      "Ġkey": 1950,
      "Ġtakes": 1951,
      "Ġtaking": 1952,
      "Ġapple": 1953,
      "ĠSammy": 1954,
      "Ġshapes": 1955,
      "Ġpurp": 1956,
      "Ġorange": 1957,
      "Ġexploring": 1958,
      "ward": 1959,
      "Ġshop": 1960,
      "Ġowl": 1961,
      "Ġcou": 1962,
      "Do": 1963,
      "Ġnothing": 1964,
      "Ġexp": 1965,
      "Ġnearby": 1966,
      "Ġpig": 1967,
      "bby": 1968,
      "ĠTw": 1969,
      "ĠLater": 1970,
      "Ġwise": 1971,
      "Ġnose": 1972,
      "Ġwondered": 1973,
      "Ġresp": 1974,
      "Ġwoke": 1975,
      "ung": 1976,
      "Ġcomes": 1977,
      "Ġes": 1978,
      "Ġseemed": 1979,
      "Ġcow": 1980,
      "col": 1981,
      "Ġbusy": 1982,
      "Ġaf": 1983,
      "Ġdes": 1984,
      "Ġsounds": 1985,
      "Ġmail": 1986,
      "Ġbench": 1987,
      "Ġtiny": 1988,
      "Ġrelie": 1989,
      "Ġsick": 1990,
      "Ġinv": 1991,
      "Ġpurple": 1992,
      "Ġmark": 1993,
      "Sara": 1994,
      "cing": 1995,
      "Ġrainbow": 1996,
      "sy": 1997,
      "aughter": 1998,
      "ose": 1999,
      "Ġarms": 2000,
      "Ġthough": 2001,
      "adow": 2002,
      "Ġmad": 2003,
      "Ġnest": 2004,
      "ions": 2005,
      "fish": 2006,
      "ining": 2007,
      "Ġmil": 2008,
      "Ġyear": 2009,
      "pper": 2010,
      "thday": 2011,
      "ese": 2012,
      "Ġ3": 2013,
      "cks": 2014,
      "Ġsitting": 2015,
      "Ġob": 2016,
      "Ġdriver": 2017,
      "Ġholding": 2018,
      "Ġround": 2019,
      "Ġking": 2020,
      "Ġcarry": 2021,
      "raid": 2022,
      "read": 2023,
      "Ġafraid": 2024,
      "ity": 2025,
      "Ġbranch": 2026,
      "ittens": 2027,
      "Ġforever": 2028,
      "ale": 2029,
      "Ġcir": 2030,
      "Ġwhist": 2031,
      "Ġhello": 2032,
      "Ġgift": 2033,
      "Ġkite": 2034,
      "Ġspoon": 2035,
      "board": 2036,
      "Ġboun": 2037,
      "ost": 2038,
      "vered": 2039,
      "Ġcute": 2040,
      "Ġdaughter": 2041,
      "Ġpeace": 2042,
      "Ġshell": 2043,
      "Ġlift": 2044,
      "idge": 2045,
      "to": 2046,
      "Ġfit": 2047,
      "Ġcoat": 2048,
      "og": 2049,
      "Ġswimming": 2050,
      "Ġhuge": 2051,
      "Tim": 2052,
      "ĠCome": 2053,
      "Ġtouched": 2054,
      "ĠWith": 2055,
      "Ġbread": 2056,
      "Ġpatient": 2057,
      "ours": 2058,
      "Of": 2059,
      "let": 2060,
      "Ġletter": 2061,
      "Ġbirthday": 2062,
      "Ġpromise": 2063,
      "Ġgrab": 2064,
      "Ġrelieved": 2065,
      "cer": 2066,
      "sting": 2067,
      "Ġgives": 2068,
      "Ġaccidentally": 2069,
      "Ġwra": 2070,
      "eth": 2071,
      "Ġputs": 2072,
      "Ġband": 2073,
      "Ġhope": 2074,
      "Ġmilk": 2075,
      "Ġbottle": 2076,
      "Ġcreature": 2077,
      "Hey": 2078,
      "gg": 2079,
      "ĠEll": 2080,
      "Ġfing": 2081,
      "shine": 2082,
      "Ġdays": 2083,
      "Ġcheese": 2084,
      "Ġintere": 2085,
      "Ġlife": 2086,
      "Ġlaughing": 2087,
      "Ġgigg": 2088,
      "Ġcozy": 2089,
      "Ġcollect": 2090,
      "alm": 2091,
      "ĠTweet": 2092,
      "Ġlucky": 2093,
      "Ġbush": 2094,
      "Ġonto": 2095,
      "Ġexciting": 2096,
      "Ġkick": 2097,
      "Ġret": 2098,
      "Ġmist": 2099,
      "Ġpower": 2100,
      "Ġspin": 2101,
      "ĠAl": 2102,
      "Ġcave": 2103,
      "Ġcomfort": 2104,
      "Ġdisco": 2105,
      "Ġjourney": 2106,
      "Ġact": 2107,
      "Ġsunshine": 2108,
      "Ġsunny": 2109,
      "gged": 2110,
      "Ġfan": 2111,
      "Ġear": 2112,
      "Ġinstead": 2113,
      "Ġreturn": 2114,
      "ped": 2115,
      "ten": 2116,
      "arp": 2117,
      "ness": 2118,
      "Ġpudd": 2119,
      "Ġpointed": 2120,
      "Ġinc": 2121,
      "Ġsmiling": 2122,
      "Ġimag": 2123,
      "Ġeas": 2124,
      "ize": 2125,
      "Ġsearched": 2126,
      "els": 2127,
      "Ġhoney": 2128,
      "itch": 2129,
      "Ġsharp": 2130,
      "Ġroad": 2131,
      "Ġanyone": 2132,
      "Ġhor": 2133,
      "Ġtalked": 2134,
      "Ġspo": 2135,
      "Ġbought": 2136,
      "oman": 2137,
      "ball": 2138,
      "Ġlater": 2139,
      "Ġsuc": 2140,
      "Ġwoman": 2141,
      "Ġsandw": 2142,
      "Ġplane": 2143,
      "Ġgather": 2144,
      "blem": 2145,
      "ub": 2146,
      "Ġproblem": 2147,
      "Ġsnowman": 2148,
      "ĠJenny": 2149,
      "Ġperson": 2150,
      "mer": 2151,
      "Ġwatching": 2152,
      "unt": 2153,
      "Ġcrayons": 2154,
      "Ġsmelled": 2155,
      "Ġhealthy": 2156,
      "Ġrope": 2157,
      "Ġtasty": 2158,
      "irt": 2159,
      "Ġtrouble": 2160,
      "Good": 2161,
      "Ġmeet": 2162,
      "Ġce": 2163,
      "Ġducks": 2164,
      "round": 2165,
      "Ġpop": 2166,
      "Ġloves": 2167,
      "Ġkiss": 2168,
      "ĠSomet": 2169,
      "itten": 2170,
      "Ġpile": 2171,
      "een": 2172,
      "Ġclouds": 2173,
      "Ġent": 2174,
      "Ġapples": 2175,
      "Ġshining": 2176,
      "Ġpar": 2177,
      "ove": 2178,
      "Ġstorm": 2179,
      "Ġspid": 2180,
      "Ġbutton": 2181,
      "Ġinteresting": 2182,
      "ĠCh": 2183,
      "ĠHow": 2184,
      "Ġmach": 2185,
      "Ġzoom": 2186,
      "amed": 2187,
      "Ġorgan": 2188,
      "Ġcard": 2189,
      "ĠRe": 2190,
      "Ġadm": 2191,
      "Ġzoo": 2192,
      "Ġpres": 2193,
      "ĠEmily": 2194,
      "Ġwide": 2195,
      "Ġclever": 2196,
      "ĠMittens": 2197,
      "Ġres": 2198,
      "ont": 2199,
      "Ġfeather": 2200,
      "Ġmatter": 2201,
      "owed": 2202,
      "Ġpill": 2203,
      "ndp": 2204,
      "Ġbark": 2205,
      "Ġhon": 2206,
      "Ġpract": 2207,
      "Ġprot": 2208,
      "aur": 2209,
      "Ġap": 2210,
      "Ġrespect": 2211,
      "Ġeag": 2212,
      "Ġfront": 2213,
      "Ġscreamed": 2214,
      "epend": 2215,
      "Ġgoes": 2216,
      "ail": 2217,
      "Ġmud": 2218,
      "Ġseat": 2219,
      "Ġprotect": 2220,
      "Ġneighbor": 2221,
      "Ġsaf": 2222,
      "Ġshr": 2223,
      "Ġquest": 2224,
      "Ġdanced": 2225,
      "Ġhorse": 2226,
      "isa": 2227,
      "Ġsur": 2228,
      "eb": 2229,
      "Ġtrip": 2230,
      "Ġanswer": 2231,
      "Ġpuzz": 2232,
      "ĠAnn": 2233,
      "Ġasleep": 2234,
      "Ġvill": 2235,
      "Ġpresent": 2236,
      "Ġmyster": 2237,
      "Ġspotted": 2238,
      "Ġtries": 2239,
      "Ġappeared": 2240,
      "Ġsnake": 2241,
      "erly": 2242,
      "Come": 2243,
      "Ġteach": 2244,
      "Ġwhole": 2245,
      "Ġpath": 2246,
      "Ġgiant": 2247,
      "Ġwild": 2248,
      "Ġlovely": 2249,
      "Ġcheer": 2250,
      "ching": 2251,
      "Ġphone": 2252,
      "Ġslid": 2253,
      "Ġplaces": 2254,
      "ĠSt": 2255,
      "Ġwhich": 2256,
      "ÅĵI": 2257,
      "Ġdi": 2258,
      "Ġwearing": 2259,
      "up": 2260,
      "Ġteeth": 2261,
      "Ġdirt": 2262,
      "ĠGo": 2263,
      "Ġforgive": 2264,
      "Ġrolled": 2265,
      "oose": 2266,
      "Ġconfused": 2267,
      "izz": 2268,
      "ĠTogether": 2269,
      "ular": 2270,
      "Ġtasted": 2271,
      "Ġminut": 2272,
      "ĠJake": 2273,
      "ones": 2274,
      "Ġgently": 2275,
      "Ġimpress": 2276,
      "Ġval": 2277,
      "Ġcouch": 2278,
      "Ġtun": 2279,
      "Ġfaces": 2280,
      "Ġthin": 2281,
      "Ġrude": 2282,
      "ert": 2283,
      "ssed": 2284,
      "Ġpass": 2285,
      "Ġcalm": 2286,
      "Ġlive": 2287,
      "itty": 2288,
      "Ġmind": 2289,
      "ndpa": 2290,
      "Ġspent": 2291,
      "Ġsplas": 2292,
      "Ġpretended": 2293,
      "Ġmed": 2294,
      "Ġpan": 2295,
      "cean": 2296,
      "Ġocean": 2297,
      "ĠLe": 2298,
      "Ġash": 2299,
      "Ġfeet": 2300,
      "Ġsupp": 2301,
      "Ġsal": 2302,
      "Ġlad": 2303,
      "nic": 2304,
      "Ġser": 2305,
      "Ġpour": 2306,
      "Ġpicnic": 2307,
      "Ġcoin": 2308,
      "Jo": 2309,
      "Ġmachine": 2310,
      "Ġlay": 2311,
      "unk": 2312,
      "ĠLisa": 2313,
      "Ġsack": 2314,
      "Ġcorner": 2315,
      "ĠSometimes": 2316,
      "Ġring": 2317,
      "Ġwrite": 2318,
      "Ġdrive": 2319,
      "Ġworm": 2320,
      "Ġbugs": 2321,
      "Ġspider": 2322,
      "Ġoven": 2323,
      "Ġpush": 2324,
      "Ġwave": 2325,
      "Ġchocol": 2326,
      "Ġemb": 2327,
      "Ġbuilding": 2328,
      "Ġsmooth": 2329,
      "Ġlast": 2330,
      "Ġign": 2331,
      "Ġtomorrow": 2332,
      "Ġcookie": 2333,
      "Ġca": 2334,
      "Ġhelpful": 2335,
      "umber": 2336,
      "arge": 2337,
      "Ġcann": 2338,
      "Ġcart": 2339,
      "Ġhiding": 2340,
      "Ġrec": 2341,
      "ĠBe": 2342,
      "als": 2343,
      "Ġwip": 2344,
      "Ġfurry": 2345,
      "Ġladder": 2346,
      "Ġremind": 2347,
      "la": 2348,
      "ĠBu": 2349,
      "Ġcannot": 2350,
      "Ġmountain": 2351,
      "lex": 2352,
      "ator": 2353,
      "Ġtid": 2354,
      "Ġblew": 2355,
      "Ġbell": 2356,
      "Ġban": 2357,
      "ato": 2358,
      "Ġbubble": 2359,
      "Ġchick": 2360,
      "Ġpaw": 2361,
      "Ġspread": 2362,
      "Ġtalking": 2363,
      "ife": 2364,
      "Ġfighting": 2365,
      "Ġfold": 2366,
      "Ġfinish": 2367,
      "Ġtool": 2368,
      "Ġdelight": 2369,
      "Ġembar": 2370,
      "Ġleaf": 2371,
      "Ġembarra": 2372,
      "Ġsel": 2373,
      "Ġwore": 2374,
      "Ġpool": 2375,
      "Ġrob": 2376,
      "Ġfoot": 2377,
      "Ġpuddle": 2378,
      "Ġsongs": 2379,
      "Ġshy": 2380,
      "Ġknee": 2381,
      "ighed": 2382,
      "Ġspray": 2383,
      "Ġeventually": 2384,
      "Ġrep": 2385,
      "Ġneckl": 2386,
      "Ġwaiting": 2387,
      "Ġmaybe": 2388,
      "Ġchocolate": 2389,
      "Ġnet": 2390,
      "Ġchased": 2391,
      "Ġbat": 2392,
      "Ġwhenever": 2393,
      "Ġfixed": 2394,
      "oph": 2395,
      "Ġstret": 2396,
      "Ġbarked": 2397,
      "ĠEverywhere": 2398,
      "Ġlarge": 2399,
      "ult": 2400,
      "St": 2401,
      "Ġselfish": 2402,
      "Ġstring": 2403,
      "Ġcoo": 2404,
      "Ġsol": 2405,
      "ĠPlease": 2406,
      "lebr": 2407,
      "Ġwash": 2408,
      "ĠSome": 2409,
      "Ġpeaceful": 2410,
      "Ġwhistle": 2411,
      "Ġcelebr": 2412,
      "Ġstir": 2413,
      "per": 2414,
      "Ġcarrots": 2415,
      "Ġant": 2416,
      "Ġcross": 2417,
      "urse": 2418,
      "Ġspe": 2419,
      "Ġcreative": 2420,
      "Ġplate": 2421,
      "Ġtaste": 2422,
      "Ġhum": 2423,
      "Ġbanan": 2424,
      "Ġgen": 2425,
      "Ġrobot": 2426,
      "Ġtidy": 2427,
      "Ġmoon": 2428,
      "Ġknocked": 2429,
      "Ġ'": 2430,
      "iger": 2431,
      "Ġtrust": 2432,
      "Ġcrab": 2433,
      "orry": 2434,
      "Ġhears": 2435,
      "Ġtells": 2436,
      "My": 2437,
      "ĠWhile": 2438,
      "box": 2439,
      "Ġcloth": 2440,
      "Ġvillage": 2441,
      "ĠZ": 2442,
      "ĠPeter": 2443,
      "Ġmissed": 2444,
      "Ġstone": 2445,
      "ungle": 2446,
      "ĠTeddy": 2447,
      "Ġstra": 2448,
      "Ġcolour": 2449,
      "Ġembarrassed": 2450,
      "airs": 2451,
      "Ġjungle": 2452,
      "Ġstep": 2453,
      "Ġrocket": 2454,
      "Ġdecor": 2455,
      "old": 2456,
      "Please": 2457,
      "Ġspicy": 2458,
      "Ġnecklace": 2459,
      "elly": 2460,
      "Ġtreats": 2461,
      "Ġshelf": 2462,
      "Ġscar": 2463,
      "getable": 2464,
      "Ġhel": 2465,
      "umpy": 2466,
      "arm": 2467,
      "Ġshirt": 2468,
      "Ġvegetable": 2469,
      "Ġforward": 2470,
      "ush": 2471,
      "Ġsplash": 2472,
      "dge": 2473,
      "Ġtea": 2474,
      "Ġsticks": 2475,
      "Ġlegs": 2476,
      "Ġemp": 2477,
      "Ġempty": 2478,
      "inted": 2479,
      "Ġsave": 2480,
      "Ġjumping": 2481,
      "Ġnut": 2482,
      "Ġple": 2483,
      "Ġgray": 2484,
      "Ġwhis": 2485,
      "Ġsharing": 2486,
      "ĠRex": 2487,
      "Ġgrew": 2488,
      "Ġber": 2489,
      "Ġsheep": 2490,
      "aking": 2491,
      "Ġtightly": 2492,
      "ĠSus": 2493,
      "Ġlanded": 2494,
      "most": 2495,
      "Ġgener": 2496,
      "Ġmeant": 2497,
      "Ġdeter": 2498,
      "Ġashamed": 2499,
      "Ġbal": 2500,
      "Ġnods": 2501,
      "Ġdisappo": 2502,
      "Joh": 2503,
      "Ġpillow": 2504,
      "Ġdeterm": 2505,
      "Ġalmost": 2506,
      "ird": 2507,
      "ĠTV": 2508,
      "ying": 2509,
      "Ġhonest": 2510,
      "nny": 2511,
      "ĠDon": 2512,
      "Ġpizz": 2513,
      "ĠEven": 2514,
      "ian": 2515,
      "Ġsour": 2516,
      "ĠWhy": 2517,
      "Ġgold": 2518,
      "Ġjew": 2519,
      "dle": 2520,
      "Ġbreath": 2521,
      "Ġcarried": 2522,
      "Ġmeadow": 2523,
      "Ġunderstood": 2524,
      "Sam": 2525,
      "ano": 2526,
      "ĠLeo": 2527,
      "Ġyelled": 2528,
      "Ġstood": 2529,
      "Ġthese": 2530,
      "Ġvan": 2531,
      "Ġpolice": 2532,
      "Ġdrew": 2533,
      "den": 2534,
      "ground": 2535,
      "Ġseed": 2536,
      "Stop": 2537,
      "Ġpay": 2538,
      "Ġkitten": 2539,
      "Ġsnacks": 2540,
      "Ġprince": 2541,
      "ned": 2542,
      "Ġsuccess": 2543,
      "Ġfear": 2544,
      "Ġbored": 2545,
      "Ġsparkly": 2546,
      "gly": 2547,
      "Ġav": 2548,
      "erp": 2549,
      "Ġlem": 2550,
      "ital": 2551,
      "aul": 2552,
      "Ġgun": 2553,
      "Ġugly": 2554,
      "ony": 2555,
      "Ġgas": 2556,
      "Ġshore": 2557,
      "Ġvase": 2558,
      "Ġdisappointed": 2559,
      "Ġhosp": 2560,
      "hin": 2561,
      "Ġline": 2562,
      "ork": 2563,
      "ustr": 2564,
      "ĠLittle": 2565,
      "kin": 2566,
      "Ġhours": 2567,
      "Ġhospital": 2568,
      "Ġgroup": 2569,
      "Ġclass": 2570,
      "ho": 2571,
      "Ġpizza": 2572,
      "itter": 2573,
      "vous": 2574,
      "Ġseek": 2575,
      "Ġplants": 2576,
      "iff": 2577,
      "Ġblow": 2578,
      "Ġknowing": 2579,
      "Ġhidden": 2580,
      "Ġgenerous": 2581,
      "Ġreturned": 2582,
      "Ġcries": 2583,
      "Ġtent": 2584,
      "Ġpuzzle": 2585,
      "oop": 2586,
      "Ġpri": 2587,
      "Ġmessy": 2588,
      "Ġeasy": 2589,
      "Ġfeed": 2590,
      "Ġpoor": 2591,
      "Ġglass": 2592,
      "Ġfrustr": 2593,
      "ĠBl": 2594,
      "Ġstanding": 2595,
      "Ġsleepy": 2596,
      "Ġpin": 2597,
      "Ġwaves": 2598,
      "Ġjelly": 2599,
      "Ġtest": 2600,
      "Ġsighed": 2601,
      "ĠJohnny": 2602,
      "Ġfancy": 2603,
      "ĠAlice": 2604,
      "Ġflag": 2605,
      "Ġsandwich": 2606,
      "Ġburn": 2607,
      "Sorry": 2608,
      "Ġthankful": 2609,
      "Ġbedroom": 2610,
      "ĠMark": 2611,
      "John": 2612,
      "Ġpowerful": 2613,
      "Ġship": 2614,
      "Ġtick": 2615,
      "Ġtaught": 2616,
      "body": 2617,
      "Ġscarf": 2618,
      "Ġsold": 2619,
      "Ġkissed": 2620,
      "Where": 2621,
      "Ġner": 2622,
      "Ġcirc": 2623,
      "Ġcrown": 2624,
      "lower": 2625,
      "Ġpir": 2626,
      "ĠMummy": 2627,
      "Ġtwirl": 2628,
      "Ġboring": 2629,
      "'d": 2630,
      "Ġdeer": 2631,
      "Ġmot": 2632,
      "ote": 2633,
      "Ġnervous": 2634,
      "era": 2635,
      "Ġreg": 2636,
      "Ġcaterp": 2637,
      "Ġcaterpill": 2638,
      "Ġmysterious": 2639,
      "Ġtears": 2640,
      "mb": 2641,
      "arl": 2642,
      "Ġfrustrated": 2643,
      "Ġpolite": 2644,
      "Ġspoil": 2645,
      "af": 2646,
      "work": 2647,
      "assed": 2648,
      "Ġpassed": 2649,
      "Ġscr": 2650,
      "Are": 2651,
      "Ġcloset": 2652,
      "Ġoften": 2653,
      "oof": 2654,
      "ĠBr": 2655,
      "Ġhur": 2656,
      "Ġyourself": 2657,
      "Ġdrop": 2658,
      "Ġminutes": 2659,
      "Ġhang": 2660,
      "obby": 2661,
      "Ġdetermined": 2662,
      "Ġfig": 2663,
      "Ġleg": 2664,
      "pack": 2665,
      "Ġrad": 2666,
      "Ġclown": 2667,
      "Ġgets": 2668,
      "Ġexcite": 2669,
      "ensive": 2670,
      "selves": 2671,
      "issors": 2672,
      "Ġfil": 2673,
      "Ġgate": 2674,
      "Ġcap": 2675,
      "Ġexpensive": 2676,
      "Ġbridge": 2677,
      "Ġchew": 2678,
      "Ġdancing": 2679,
      "ina": 2680,
      "iddle": 2681,
      "Ġchest": 2682,
      "Ġgathered": 2683,
      "light": 2684,
      "Ġscissors": 2685,
      "Ġpicks": 2686,
      "Ġflut": 2687,
      "Ġsaved": 2688,
      "ets": 2689,
      "Ġfinger": 2690,
      "illed": 2691,
      "Ġwagged": 2692,
      "ates": 2693,
      "ĠOK": 2694,
      "ual": 2695,
      "Ġesc": 2696,
      "izzy": 2697,
      "Ġcaterpillar": 2698,
      "Ġwolf": 2699,
      "Ġboss": 2700,
      "Ġwander": 2701,
      "osaur": 2702,
      "Ġgrumpy": 2703,
      "Ġdrum": 2704,
      "Ġcomfortable": 2705,
      "Ġlock": 2706,
      "ĠNo": 2707,
      "Ġpacked": 2708,
      "ond": 2709,
      "Ġqueen": 2710,
      "Ġanswered": 2711,
      "Ġhopping": 2712,
      "Ġworking": 2713,
      "ots": 2714,
      "Ġspend": 2715,
      "Ġdogs": 2716,
      "Ġmistake": 2717,
      "Ġexcitement": 2718,
      "Ġlit": 2719,
      "Ġmummy": 2720,
      "Ġdinosaur": 2721,
      "Ġstuff": 2722,
      "Ġtaken": 2723,
      "Ġcand": 2724,
      "Ġknight": 2725,
      "ĠSusie": 2726,
      "ĠToday": 2727,
      "Ġvegetables": 2728,
      "uce": 2729,
      "Ġmedic": 2730,
      "Ġwheel": 2731,
      "Ġpus": 2732,
      "Ġwalks": 2733,
      "Ġdrawing": 2734,
      "Ġmiddle": 2735,
      "Ġpress": 2736,
      "ĠKitty": 2737,
      "Ġbone": 2738,
      "ggs": 2739,
      "Ġeggs": 2740,
      "Ġtrue": 2741,
      "Ġlazy": 2742,
      "que": 2743,
      "Ġlose": 2744,
      "Ġgiggled": 2745,
      "Ġcrawl": 2746,
      "Ġones": 2747,
      "Ġruined": 2748,
      "Ġfruits": 2749,
      "There": 2750,
      "Ġmir": 2751,
      "Ġwis": 2752,
      "Ġdest": 2753,
      "ugar": 2754,
      "Ġclap": 2755,
      "Ġmedicine": 2756,
      "Ġadd": 2757,
      "Ġnumber": 2758,
      "Ġbathroom": 2759,
      "Ġsmelly": 2760,
      "iness": 2761,
      "Ġasking": 2762,
      "ecially": 2763,
      "Who": 2764,
      "ĠBlue": 2765,
      "Ġexam": 2766,
      "Ġfake": 2767,
      "Ġsugar": 2768,
      "Ġfeathers": 2769,
      "Ġsight": 2770,
      "Ġstones": 2771,
      "Ġbrush": 2772,
      "Ġgar": 2773,
      "Ġlicked": 2774,
      "Ġsweetie": 2775,
      "Ġtape": 2776,
      "pecially": 2777,
      "Ġespecially": 2778,
      "ror": 2779,
      "aser": 2780,
      "Ġteam": 2781,
      "Ġweak": 2782,
      "Ġchange": 2783,
      "Ġbody": 2784,
      "Ġdistance": 2785,
      "Ġnod": 2786,
      "Ġroar": 2787,
      "ella": 2788,
      "Ġdrank": 2789,
      "Ġpleased": 2790,
      "Ġlead": 2791,
      "elp": 2792,
      "Ġmatch": 2793,
      "Ġbake": 2794,
      "Ġpray": 2795,
      "Ġcri": 2796,
      "Ġcage": 2797,
      "ĠEventually": 2798,
      "Ġsplashed": 2799,
      "Ġfluffy": 2800,
      "ĠIf": 2801,
      "Ġballs": 2802,
      "Ġmic": 2803,
      "Ġyours": 2804,
      "Ġmov": 2805,
      "ating": 2806,
      "Ġlying": 2807,
      "Ġcalling": 2808,
      "aged": 2809,
      "Ġfis": 2810,
      "Ġsailed": 2811,
      "Ġmoving": 2812,
      "uggest": 2813,
      "Ġlemon": 2814,
      "Ġglow": 2815,
      "Ġtie": 2816,
      "Ġsuggest": 2817,
      "Ġdisappeared": 2818,
      "Ġboard": 2819,
      "Ġsell": 2820,
      "Ġnoisy": 2821,
      "Ġglue": 2822,
      "Ġwrote": 2823,
      "ĠRose": 2824,
      "Ġsoap": 2825,
      "Ġclear": 2826,
      "hip": 2827,
      "ete": 2828,
      "ha": 2829,
      "Ġrelax": 2830,
      "Ġrid": 2831,
      "Ġok": 2832,
      "Ġweek": 2833,
      "Ġeld": 2834,
      "Ġdecide": 2835,
      "Help": 2836,
      "Ġbecome": 2837,
      "Ġincred": 2838,
      "Ġmoms": 2839,
      "Ġmeasure": 2840,
      "Ġjuicy": 2841,
      "Ġmirror": 2842,
      "Ġcovered": 2843,
      "alous": 2844,
      "Ġplayground": 2845,
      "Now": 2846,
      "ĠU": 2847,
      "Ġshows": 2848,
      "Ġjealous": 2849,
      "yal": 2850,
      "Ġhorn": 2851,
      "Ġquestions": 2852,
      "Ġfine": 2853,
      "Ġrare": 2854,
      "Ġcontent": 2855,
      "Ġboys": 2856,
      "ination": 2857,
      "Ġcraw": 2858,
      "Ġeager": 2859,
      "Ġcrawled": 2860,
      "Ġtowel": 2861,
      "Ġcheck": 2862,
      "ipp": 2863,
      "Ġskipped": 2864,
      "Ġdig": 2865,
      "Ġfather": 2866,
      "Ġind": 2867,
      "Ġcleaned": 2868,
      "Ġext": 2869,
      "Ġord": 2870,
      "Ġfamous": 2871,
      "Ġeye": 2872,
      "Ġtwist": 2873,
      "Ġneeds": 2874,
      "Ġshoot": 2875,
      "ĠEnd": 2876,
      "Ġgarage": 2877,
      "imp": 2878,
      "Ġjoke": 2879,
      "Ġincredible": 2880,
      "Ġtrucks": 2881,
      "eez": 2882,
      "Ġed": 2883,
      "umbled": 2884,
      "Ġsword": 2885,
      "ĠElla": 2886,
      "Ġtiger": 2887,
      "Ġloyal": 2888,
      "illi": 2889,
      "Ġhose": 2890,
      "Ġbubbles": 2891,
      "ory": 2892,
      "ĠMrs": 2893,
      "Ġmap": 2894,
      "Ġorganized": 2895,
      "Ġhappening": 2896,
      "ĠBobby": 2897,
      "ti": 2898,
      "Ġrealised": 2899,
      "Ġunus": 2900,
      "Ġbranches": 2901,
      "Ġlamp": 2902,
      "Ġword": 2903,
      "fic": 2904,
      "Ġborrow": 2905,
      "Ġtag": 2906,
      "Ġdiscovered": 2907,
      "Ġmotor": 2908,
      "Ġunusual": 2909,
      "Ġdish": 2910,
      "ipper": 2911,
      "Ġhurts": 2912,
      "Be": 2913,
      "Ġwand": 2914,
      "Ġextra": 2915,
      "cil": 2916,
      "Ġsil": 2917,
      "Ġfrown": 2918,
      "Ġknife": 2919,
      "Ġrich": 2920,
      "Ġpencil": 2921,
      "Ġelderly": 2922,
      "ĠDan": 2923,
      "Ġthick": 2924,
      "Ġballoons": 2925,
      "lies": 2926,
      "ddy": 2927,
      "Ġmod": 2928,
      "Ġwhale": 2929,
      "Me": 2930,
      "Ġcover": 2931,
      "Ġdiffic": 2932,
      "Ġlouder": 2933,
      "Ġfigure": 2934,
      "Ġonce": 2935,
      "Ġcost": 2936,
      "asing": 2937,
      "ique": 2938,
      "Ġfour": 2939,
      "Ġguess": 2940,
      "Ġbottom": 2941,
      "keep": 2942,
      "Ġdifficult": 2943,
      "port": 2944,
      "Ġaw": 2945,
      "Ġtoug": 2946,
      "Ġlaughs": 2947,
      "Ġflash": 2948,
      "ĠPete": 2949,
      "Ġcolourful": 2950,
      "Ġunique": 2951,
      "Ġang": 2952,
      "Ġcompet": 2953,
      "Ġarg": 2954,
      "Ġoffered": 2955,
      "Ġchase": 2956,
      "Ġham": 2957,
      "Ġshake": 2958,
      "Ġboxes": 2959,
      "Ġbalance": 2960,
      "fast": 2961,
      "imed": 2962,
      "Ġadded": 2963,
      "ery": 2964,
      "Ġspun": 2965,
      "cept": 2966,
      "Ġturt": 2967,
      "Ġwrapped": 2968,
      "Ġhero": 2969,
      "Ġbarn": 2970,
      "Ġadventur": 2971,
      "Ġjewel": 2972,
      "ĠBrown": 2973,
      "Lila": 2974,
      "Ġstraw": 2975,
      "Ġberries": 2976,
      "ately": 2977,
      "Ġcoins": 2978,
      "Ġkindness": 2979,
      "Ġgiving": 2980,
      "Ġbreakfast": 2981,
      "Ġlog": 2982,
      "?\".": 2983,
      "Ġchicken": 2984,
      "ages": 2985,
      "Ġbloom": 2986,
      "ature": 2987,
      "Ġbald": 2988,
      "Ġgoat": 2989,
      "ured": 2990,
      "Ġbanana": 2991,
      "rag": 2992,
      "Ġmighty": 2993,
      "Ġnorm": 2994,
      "Ġadventurous": 2995,
      "Ġswan": 2996,
      "Ġdolp": 2997,
      "ye": 2998,
      "ĠEllie": 2999,
      "Ġfool": 3000,
      "Ġmanaged": 3001,
      "Ġfalls": 3002,
      "land": 3003,
      "Ġpump": 3004,
      "Ġlifted": 3005,
      "Ġtough": 3006,
      "ym": 3007,
      "Ġcher": 3008,
      "Ġpointing": 3009,
      "ject": 3010,
      "Ġhelps": 3011,
      "uggled": 3012,
      "Ġdizzy": 3013,
      "Ġcircle": 3014,
      "Here": 3015,
      "Well": 3016,
      "Ġpee": 3017,
      "Ġwagon": 3018,
      "alk": 3019,
      "olog": 3020,
      "Ġharder": 3021,
      "ouses": 3022,
      "Ġdreamed": 3023,
      "keeper": 3024,
      "Ġcompetit": 3025,
      "Ġweird": 3026,
      "Ġsmoke": 3027,
      "Ġmelt": 3028,
      "Ġloudly": 3029,
      "Ġnormal": 3030,
      "oppy": 3031,
      "ĠMy": 3032,
      "Ġbelonged": 3033,
      "Ġbossy": 3034,
      "Ġmarket": 3035,
      "Ġimpressed": 3036,
      "Ġfat": 3037,
      "Ġears": 3038,
      "Ġgrown": 3039,
      "Ġwrap": 3040,
      "Ġapolog": 3041,
      "Ġskin": 3042,
      "Ġshape": 3043,
      "Ġhats": 3044,
      "ilt": 3045,
      "Ġknows": 3046,
      "Ġicy": 3047,
      "ĠMar": 3048,
      "Ġstubb": 3049,
      "Ġlearning": 3050,
      "emo": 3051,
      "Ġagainst": 3052,
      "Ġsearch": 3053,
      "Ġhunt": 3054,
      "ĠNemo": 3055,
      "Ġhouses": 3056,
      "Ġdepend": 3057,
      "Ġscare": 3058,
      "Ġenjoying": 3059,
      "pes": 3060,
      "anged": 3061,
      "Ġmeans": 3062,
      "Ġfavour": 3063,
      "Ġharm": 3064,
      "Ġslipped": 3065,
      "Ġbrothers": 3066,
      "ĠMandy": 3067,
      "head": 3068,
      "Ġrough": 3069,
      "Ġpainting": 3070,
      "Ġedge": 3071,
      "reen": 3072,
      "ĠBella": 3073,
      "Ġchoose": 3074,
      "Ġbrilli": 3075,
      "Ġgrace": 3076,
      "Ġrecord": 3077,
      "Ġbuttons": 3078,
      "Ġref": 3079,
      "Ġfright": 3080,
      "Ġstubborn": 3081,
      "ĠFred": 3082,
      "apping": 3083,
      "ready": 3084,
      "ĠDucky": 3085,
      "Ġwhisp": 3086,
      "Ġfavourite": 3087,
      "Ġjack": 3088,
      "Ġshells": 3089,
      "Ġfoolish": 3090,
      "Ġsafely": 3091,
      "Ġbrilliant": 3092,
      "Ġbatter": 3093,
      "Ġcudd": 3094,
      "Ġtoast": 3095,
      "Ġfridge": 3096,
      "Ġcircles": 3097,
      "omed": 3098,
      "Ġspace": 3099,
      "Ġstri": 3100,
      "iv": 3101,
      "Ġguit": 3102,
      "Ġter": 3103,
      "Ġcro": 3104,
      "Ġhappiness": 3105,
      "rage": 3106,
      "Ġalready": 3107,
      "Ġrat": 3108,
      "Ġbitter": 3109,
      "Ġturtle": 3110,
      "aw": 3111,
      "erry": 3112,
      "Ġyog": 3113,
      "Ġwalls": 3114,
      "Ġoffice": 3115,
      "ĠMike": 3116,
      "Ġlibr": 3117,
      "Ġwake": 3118,
      "Ġlaw": 3119,
      "Ġsounded": 3120,
      "Ġisland": 3121,
      "Ġstrawber": 3122,
      "Ġmixed": 3123,
      "edient": 3124,
      "Ġegg": 3125,
      "Ġsaying": 3126,
      "Ġclay": 3127,
      "Ġdreams": 3128,
      "Ġcrack": 3129,
      "ĠBobo": 3130,
      "ĠDave": 3131,
      "Ġcheerful": 3132,
      "ext": 3133,
      "erg": 3134,
      "arth": 3135,
      "Ġtrunk": 3136,
      "iable": 3137,
      "Ġbags": 3138,
      "Ġcam": 3139,
      "Ġunl": 3140,
      "Ġsmaller": 3141,
      "Ġvalu": 3142,
      "Ġmovie": 3143,
      "Ġroof": 3144,
      "Ġescape": 3145,
      "ache": 3146,
      "Ġnosy": 3147,
      "Ġfier": 3148,
      "Ġguitar": 3149,
      "Ġshark": 3150,
      "Ġnotice": 3151,
      "Ġexcla": 3152,
      "Ġpoured": 3153,
      "Ġaccept": 3154,
      "Ġparrot": 3155,
      "Ġstronger": 3156,
      "Ġcab": 3157,
      "Ġstream": 3158,
      "Ġmagn": 3159,
      "Ġtunn": 3160,
      "sc": 3161,
      "Ġcrayon": 3162,
      "Ġobedient": 3163,
      "Ġinvited": 3164,
      "Ġweal": 3165,
      "Ġnicely": 3166,
      "Ġexclaimed": 3167,
      "arry": 3168,
      "Ġuseful": 3169,
      "Ġdependable": 3170,
      "Ġlow": 3171,
      "Ġsuggested": 3172,
      "Ġreliable": 3173,
      "Ġtools": 3174,
      "Ġcabin": 3175,
      "Ġfierce": 3176,
      "Ġtimes": 3177,
      "Ġthu": 3178,
      "ĠTweety": 3179,
      "Ġproudly": 3180,
      "Ġterri": 3181,
      "Ġcounted": 3182,
      "Ġscrat": 3183,
      "Ġfingers": 3184,
      "Ġrose": 3185,
      "Ġcity": 3186,
      "ado": 3187,
      "Ġindepend": 3188,
      "Ġshowing": 3189,
      "ola": 3190,
      "Ġstudy": 3191,
      "Ġpil": 3192,
      "Ġlean": 3193,
      "irp": 3194,
      "Ġbushes": 3195,
      "Ġdesign": 3196,
      "Ġabove": 3197,
      "Ġexplored": 3198,
      "na": 3199,
      "wards": 3200,
      "Ġtummy": 3201,
      "Ġjoined": 3202,
      "Ġhoop": 3203,
      "Ġfrightened": 3204,
      "corn": 3205,
      "Ġstumbled": 3206,
      "Ġdead": 3207,
      "ĠKim": 3208,
      "rell": 3209,
      "Ġgem": 3210,
      "Ġkicked": 3211,
      "Ġfountain": 3212,
      "Ġbirdie": 3213,
      "Ġspinning": 3214,
      "cu": 3215,
      "cient": 3216,
      "Ġspoiled": 3217,
      "Ġtwig": 3218,
      "Ġfrag": 3219,
      "Ġdough": 3220,
      "ĠSoph": 3221,
      "Ġlocked": 3222,
      "Ġlights": 3223,
      "Ġsuccessful": 3224,
      "Ġthemselves": 3225,
      "Ġstove": 3226,
      "Ġusing": 3227,
      "Ġcop": 3228,
      "Ġmem": 3229,
      "kn": 3230,
      "Ġwiped": 3231,
      "Ġjog": 3232,
      "Ġbrightly": 3233,
      "Ġexcitedly": 3234,
      "Ġzip": 3235,
      "Ġvaluable": 3236,
      "Ġrode": 3237,
      "Ġenorm": 3238,
      "Ġtele": 3239,
      "Ġindependent": 3240,
      "Ġenormous": 3241,
      "amond": 3242,
      "Ġancient": 3243,
      "az": 3244,
      "Ġyarn": 3245,
      "Ġswe": 3246,
      "ÅĵLet": 3247,
      "Ġfre": 3248,
      "Ġbeak": 3249,
      "Ġcleaning": 3250,
      "ĠYour": 3251,
      "Ġthoughtful": 3252,
      "ĠWhenever": 3253,
      "Ġkinds": 3254,
      "Ġdelicate": 3255,
      "anut": 3256,
      "Ġjam": 3257,
      "Ġbuilt": 3258,
      "ention": 3259,
      "Ġseem": 3260,
      "Ġeng": 3261,
      "Ġdiamond": 3262,
      "Ġreminded": 3263,
      "ither": 3264,
      "Ġsteal": 3265,
      "Ġow": 3266,
      "Ġpopcorn": 3267,
      "inal": 3268,
      "ĠGrandpa": 3269,
      "Ġshadow": 3270,
      "ipe": 3271,
      "Ġthirst": 3272,
      "oot": 3273,
      "orge": 3274,
      "Ġholds": 3275,
      "Ġshone": 3276,
      "Ġsniff": 3277,
      "Ġfragile": 3278,
      "Ġenvel": 3279,
      "Ġways": 3280,
      "mbrell": 3281,
      "Ġadmired": 3282,
      "Ġumbrell": 3283,
      "Ġstat": 3284,
      "Ġflute": 3285,
      "iginal": 3286,
      "Ġbean": 3287,
      "Ġtank": 3288,
      "Ġbounce": 3289,
      "Ġpractice": 3290,
      "uth": 3291,
      "known": 3292,
      "Ġbees": 3293,
      "Ġmarble": 3294,
      "ĠLola": 3295,
      "eeze": 3296,
      "Ġflashlight": 3297,
      "Ġchanged": 3298,
      "Ġgrandpa": 3299,
      "Ġcostum": 3300,
      "pid": 3301,
      "illa": 3302,
      "Ġwhispered": 3303,
      "Ġbump": 3304,
      "Ġrubb": 3305,
      "Ġfinding": 3306,
      "Ġbrace": 3307,
      "Ġpainted": 3308,
      "Ġhelm": 3309,
      "Ġpumpkin": 3310,
      "Ġhalf": 3311,
      "Ġlab": 3312,
      "umbers": 3313,
      "Ġsolve": 3314,
      "Ġcamera": 3315,
      "ĠPe": 3316,
      "Ġpige": 3317,
      "ray": 3318,
      "cod": 3319,
      "Ġoriginal": 3320,
      "Ġserious": 3321,
      "Ġstamp": 3322,
      "Ġthirsty": 3323,
      "Ġunknown": 3324,
      "Ġtomato": 3325,
      "uring": 3326,
      "Ġstupid": 3327,
      "Ġsuit": 3328,
      "Ġpost": 3329,
      "Ġdove": 3330,
      "Ġplayful": 3331,
      "ĠSn": 3332,
      "Ġstairs": 3333,
      "Ġraced": 3334,
      "Ġyet": 3335,
      "Ġbeet": 3336,
      "Ġsleeping": 3337,
      "Ġguard": 3338,
      "Ġopens": 3339,
      "ĠFr": 3340,
      "ĠCl": 3341,
      "Ġwealthy": 3342,
      "Ġclum": 3343,
      "Ġpicking": 3344,
      "Ġsalad": 3345,
      "Ġenc": 3346,
      "inary": 3347,
      "Ġcone": 3348,
      "Ġseeds": 3349,
      "Ġcomput": 3350,
      "gu": 3351,
      "ĠJoey": 3352,
      "Ġpebble": 3353,
      "Ġmis": 3354,
      "Ġchose": 3355,
      "Ġson": 3356,
      "Ġcrocod": 3357,
      "eorge": 3358,
      "ilty": 3359,
      "Ġallowed": 3360,
      "Ġpeanut": 3361,
      "Ġmole": 3362,
      "Ġguilty": 3363,
      "How": 3364,
      "Ġstops": 3365,
      "Ġangel": 3366,
      "Ġdolphin": 3367,
      "Ġforth": 3368,
      "Ġflex": 3369,
      "Ġcheap": 3370,
      "Ġnurse": 3371,
      "dom": 3372,
      "Ġwashed": 3373,
      "Ġdelighted": 3374,
      "Ġnature": 3375,
      "iew": 3376,
      "Ġdoesn": 3377,
      "Ġsearching": 3378,
      "ĠOnce": 3379,
      "Ġmetal": 3380,
      "Ġcere": 3381,
      "com": 3382,
      "Ġclock": 3383,
      "Ġmoder": 3384,
      "Ġsunf": 3385,
      "Ġcompass": 3386,
      "anger": 3387,
      "Ġjolly": 3388,
      "Ġmarch": 3389,
      "Ġboats": 3390,
      "Ġhammer": 3391,
      "Ġfresh": 3392,
      "vice": 3393,
      "ines": 3394,
      "Ġthose": 3395,
      "ugged": 3396,
      "Ġview": 3397,
      "Ġnumbers": 3398,
      "Ġleaving": 3399,
      "isk": 3400,
      "Ġtelling": 3401,
      "Ġclumsy": 3402,
      "Ġrushed": 3403,
      "Ġhay": 3404,
      "ĠAlex": 3405,
      "Ġdull": 3406,
      "ience": 3407,
      "oomy": 3408,
      "Ġpant": 3409,
      "Ġarrow": 3410,
      "Ġprint": 3411,
      "Ġhairy": 3412,
      "Ġdust": 3413,
      "Ġmissing": 3414,
      "het": 3415,
      "Ġregular": 3416,
      "gest": 3417,
      "Ġflexible": 3418,
      "Ġacorn": 3419,
      "Ġshel": 3420,
      "Ġterrible": 3421,
      "Ġfriendship": 3422,
      "Ġprize": 3423,
      "Ġmodern": 3424,
      "!\".": 3425,
      "Ġspilled": 3426,
      "Ġengine": 3427,
      "Ġtem": 3428,
      "Ġtor": 3429,
      "Ġjug": 3430,
      "ations": 3431,
      "Ġtooth": 3432,
      "Ġsauce": 3433,
      "Ġending": 3434,
      "Ġbiggest": 3435,
      "Ġload": 3436,
      "Ġdriving": 3437,
      "Ġavo": 3438,
      "Ġaunt": 3439,
      "aghet": 3440,
      "Ġpotato": 3441,
      "aghetti": 3442,
      "ĠPat": 3443,
      "Ġbarber": 3444,
      "Ġenvelope": 3445,
      "Ġsink": 3446,
      "Ġtowers": 3447,
      "Ġumbrella": 3448,
      "Ġsne": 3449,
      "Ġrub": 3450,
      "Ġpirate": 3451,
      "Ġdestro": 3452,
      "ict": 3453,
      "Ġhanded": 3454,
      "Ġpeeked": 3455,
      "Ġresc": 3456,
      "fa": 3457,
      "Ġpopular": 3458,
      "Ġpatter": 3459,
      "Ġhandle": 3460,
      "time": 3461,
      "Ġloll": 3462,
      "Ġcareless": 3463,
      "Ġwire": 3464,
      "Ġdreaming": 3465,
      "Ġcarrying": 3466,
      "Ġbeetle": 3467,
      "Ġscreen": 3468,
      "ipop": 3469,
      "Ġthunder": 3470,
      "Re": 3471,
      "Ġspaghetti": 3472,
      "Ġchar": 3473,
      "Ġtied": 3474,
      "Ġgraceful": 3475,
      "See": 3476,
      "Ġing": 3477,
      "Ġwing": 3478,
      "Ġcomb": 3479,
      "ĠNext": 3480,
      "Ġprep": 3481,
      "Ġcereal": 3482,
      "Ġstage": 3483,
      "Ġlollipop": 3484,
      "Go": 3485,
      "Ġjacket": 3486,
      "Ġtunnel": 3487,
      "Ġstatue": 3488,
      "Ġmush": 3489,
      "Ġrubbed": 3490,
      "Ġcompassion": 3491,
      "Ġgoose": 3492,
      "Ġknock": 3493,
      "Ġpattern": 3494,
      "ĠToby": 3495,
      "Ġdesk": 3496,
      "Ġreward": 3497,
      "Ġscatter": 3498,
      "Ġslides": 3499,
      "redient": 3500,
      "Ġingredient": 3501,
      "Ġshocked": 3502,
      "Ġer": 3503,
      "Ġcomputer": 3504,
      "Ġcur": 3505,
      "ision": 3506,
      "arsh": 3507,
      "Ġnote": 3508,
      "Ġdeliver": 3509,
      "Ġscale": 3510,
      "Ġstack": 3511,
      "Ġmel": 3512,
      "ĠSm": 3513,
      "robe": 3514,
      "Ġsquare": 3515,
      "Ġgrand": 3516,
      "Ġmeal": 3517,
      "Ġbull": 3518,
      "Ġtrap": 3519,
      "Ġliz": 3520,
      "Ġtruth": 3521,
      "Ġcrazy": 3522,
      "Ġbracelet": 3523,
      "Ġcrocodile": 3524,
      "eezed": 3525,
      "Ġpengu": 3526,
      "Ġpow": 3527,
      "Ġtravel": 3528,
      "Ġwitch": 3529,
      "Ġshiver": 3530,
      "Ġgasped": 3531,
      "Ġmask": 3532,
      "Ġimagined": 3533,
      "âĤ¬âĢ": 3534,
      "Ġimpressive": 3535,
      "Ġrug": 3536,
      "Ġtrash": 3537,
      "Ġperform": 3538,
      "Ġpersist": 3539,
      "ellig": 3540,
      "ĠGeorge": 3541,
      "Ġcollar": 3542,
      "Ġearth": 3543,
      "Ġintellig": 3544,
      "Ġearly": 3545,
      "Ġpup": 3546,
      "Ġjumps": 3547,
      "They": 3548,
      "He": 3549,
      "Ġthinking": 3550,
      "host": 3551,
      "Ġadvice": 3552,
      "io": 3553,
      "Ow": 3554,
      "ĠPolly": 3555,
      "ement": 3556,
      "ĠGrace": 3557,
      "iches": 3558,
      "Ġwheels": 3559,
      "Ġstranger": 3560,
      "Ġcrane": 3561,
      "Ġspring": 3562,
      "Ġnames": 3563,
      "Ġenv": 3564,
      "Ġperm": 3565,
      "Ġwindows": 3566,
      "Ġenth": 3567,
      "comfort": 3568,
      "Ġfork": 3569,
      "ÅĵWhat": 3570,
      "Ġspoke": 3571,
      "ibb": 3572,
      "Ġghost": 3573,
      "illie": 3574,
      "Ġbent": 3575,
      "ikes": 3576,
      "ĠLook": 3577,
      "Ġbeauty": 3578,
      "Ġstickers": 3579,
      "Ġcreate": 3580,
      "Ġobject": 3581,
      "Ġlibrary": 3582,
      "Ġenthus": 3583,
      "Ġcelebrate": 3584,
      "Ġmushroom": 3585,
      "Ġingredients": 3586,
      "ĠBear": 3587,
      "aches": 3588,
      "comfortable": 3589,
      "Ġwaff": 3590,
      "Ġmill": 3591,
      "Ġgrowing": 3592,
      "Ġorder": 3593,
      "Ġwarned": 3594,
      "Ġphot": 3595,
      "Ġmailbox": 3596,
      "Ġuncomfortable": 3597,
      "Ġdiscover": 3598,
      "Ġbutterflies": 3599,
      "Ġreading": 3600,
      "Ġpale": 3601,
      "Ġhipp": 3602,
      "Ġtorn": 3603,
      "awn": 3604,
      "Ġcamp": 3605,
      "Ġsorts": 3606,
      "Ġsparkled": 3607,
      "ĠHere": 3608,
      "ÅĵLetÃ¢": 3609,
      "Ġpigeon": 3610,
      "Ġquestion": 3611,
      "Ġsofa": 3612,
      "ebra": 3613,
      "Ġharmless": 3614,
      "Ġcomplet": 3615,
      "Ġletters": 3616,
      "Ġparade": 3617,
      "coa": 3618,
      "Ġcompetitive": 3619,
      "ĠAndy": 3620,
      "Ġflour": 3621,
      "ÅĵYes": 3622,
      "Ġanx": 3623,
      "tter": 3624,
      "Ġsudden": 3625,
      "ÅĵIt": 3626,
      "Ġuncle": 3627,
      "Ġpretending": 3628,
      "Ġpenny": 3629,
      "Ġgor": 3630,
      "Ġdestroy": 3631,
      "Ġsandwiches": 3632,
      "ses": 3633,
      "Ġnuts": 3634,
      "Ġahead": 3635,
      "Ġrece": 3636,
      "Ġblueber": 3637,
      "orant": 3638,
      "ĠPaul": 3639,
      "ips": 3640,
      "Ġcounting": 3641,
      "Ġpatch": 3642,
      "loo": 3643,
      "Ġbadly": 3644,
      "ĠSophie": 3645,
      "ince": 3646,
      "Ġpony": 3647,
      "Ġshut": 3648,
      "Ġlizard": 3649,
      "Ġanxious": 3650,
      "Ġzebra": 3651,
      "Ġbeep": 3652,
      "Ġplaced": 3653,
      "Ġsurf": 3654,
      "Ġcooking": 3655,
      "Ġpiano": 3656,
      "Ġneat": 3657,
      "Ġhumble": 3658,
      "Ġhook": 3659,
      "ĠTweetie": 3660,
      "ices": 3661,
      "Ġencou": 3662,
      "Ġsadly": 3663,
      "Ġsnuggled": 3664,
      "Ġcocoa": 3665,
      "Ġuniver": 3666,
      "Ġhung": 3667,
      "Ġmay": 3668,
      "Ġignorant": 3669,
      "ric": 3670,
      "Ġtwirled": 3671,
      "Ġintelligent": 3672,
      "Ġstation": 3673,
      "Ġsunflower": 3674,
      "Ġbase": 3675,
      "Ġotter": 3676,
      "stri": 3677,
      "ĠcouldnÃ¢": 3678,
      "oe": 3679,
      "Ġsuper": 3680,
      "Ġpersistent": 3681,
      "aid": 3682,
      "Ġdug": 3683,
      "Ġpepper": 3684,
      "Ġtriang": 3685,
      "Ġnail": 3686,
      "Ġcards": 3687,
      "Ġrefused": 3688,
      "Yay": 3689,
      "Ġtask": 3690,
      "ĠSh": 3691,
      "Ġspeed": 3692,
      "Ġgum": 3693,
      "ief": 3694,
      "Ġrules": 3695,
      "cream": 3696,
      "Ġgloomy": 3697,
      "Ġcupboard": 3698,
      "Ġpants": 3699,
      "gust": 3700,
      "Ġchance": 3701,
      "Ġfearful": 3702,
      "Ġtur": 3703,
      "Ġchasing": 3704,
      "Ġcharming": 3705,
      "ud": 3706,
      "Ġleash": 3707,
      "Ġstarts": 3708,
      "Ġshaking": 3709,
      "Ġdisgust": 3710,
      "Ġsett": 3711,
      "Ġcreatures": 3712,
      "Ġdeaf": 3713,
      "Ġattract": 3714,
      "ĠBa": 3715,
      "ĠGive": 3716,
      "Ġtrick": 3717,
      "Ġcarp": 3718,
      "Ġordinary": 3719,
      "arian": 3720,
      "ĠBill": 3721,
      "Ġtrack": 3722,
      "Ġpasta": 3723,
      "Ġresist": 3724,
      "Ġanywhere": 3725,
      "Ġtrump": 3726,
      "erable": 3727,
      "Ġolder": 3728,
      "Ġcartoon": 3729,
      "lcano": 3730,
      "Ġcurt": 3731,
      "Ġgifted": 3732,
      "cut": 3733,
      "Ġhippo": 3734,
      "Ġcurtain": 3735,
      "Ġled": 3736,
      "Ġyawn": 3737,
      "Ġmiserable": 3738,
      "ceed": 3739,
      "Ġsquash": 3740,
      "Ġcourage": 3741,
      "Ġcricket": 3742,
      "Max": 3743,
      "Ġbrighter": 3744,
      "Ġgorilla": 3745,
      "Give": 3746,
      "Ġimpat": 3747,
      "bled": 3748,
      "Ġsend": 3749,
      "Ġpurse": 3750,
      "Ġgir": 3751,
      "Ġalert": 3752,
      "Ġjet": 3753,
      "Ġpracticed": 3754,
      "Ġturkey": 3755,
      "Ġclub": 3756,
      "Ġhurry": 3757,
      "Ġhelmet": 3758,
      "Ġshouts": 3759,
      "Ġvalue": 3760,
      "Ġdecorate": 3761,
      "Ġbandage": 3762,
      "opus": 3763,
      "ctopus": 3764,
      "Ġsoldier": 3765,
      "Ġfu": 3766,
      "urb": 3767,
      "Ġcompl": 3768,
      "ĠUn": 3769,
      "Ġostri": 3770,
      "Ġscoot": 3771,
      "Ġimpatient": 3772,
      "Ġtire": 3773,
      "Ġcase": 3774,
      "Ġdisturb": 3775,
      "iest": 3776,
      "htub": 3777,
      "Ġallig": 3778,
      "Ġvolcano": 3779,
      "Ġcompassionate": 3780,
      "Ġtrumpet": 3781,
      "Ġbathtub": 3782,
      "Ġshine": 3783,
      "und": 3784,
      "Ġoctopus": 3785,
      "Ġbounced": 3786,
      "Ġsupport": 3787,
      "Ġitself": 3788,
      "aked": 3789,
      "Ġspell": 3790,
      "Ġdrawer": 3791,
      "Ġcarpet": 3792,
      "ĠMillie": 3793,
      "Ġdisgusting": 3794,
      "ĠWhere": 3795,
      "ĠAre": 3796,
      "Ġjeep": 3797,
      "ĠBefore": 3798,
      "Ġpressed": 3799,
      "Ġsalt": 3800,
      "Ġbicy": 3801,
      "Ġmeas": 3802,
      "Ġgrabs": 3803,
      "Ġfilthy": 3804,
      "Ġmelon": 3805,
      "noon": 3806,
      "Ġcomet": 3807,
      "Ġafternoon": 3808,
      "Ġbarking": 3809,
      "Ġmug": 3810,
      "Ġrestless": 3811,
      "Ġshoe": 3812,
      "aff": 3813,
      "Ġhunter": 3814,
      "Bye": 3815,
      "Ġenvious": 3816,
      "Ġbri": 3817,
      "Ġhelpless": 3818,
      "Ġtray": 3819,
      "Ġfirework": 3820,
      "Ġsucceed": 3821,
      "Ġpulls": 3822,
      "icop": 3823,
      "icopter": 3824,
      "Ġstretched": 3825,
      "Ġten": 3826,
      "Ġnowhere": 3827,
      "ubby": 3828,
      "ĠSandy": 3829,
      "Ġskip": 3830,
      "Ġadmire": 3831,
      "ĠBuddy": 3832,
      "Ġattractive": 3833,
      "Ġcryst": 3834,
      "Ġlively": 3835,
      "Ġnobody": 3836,
      "Ġmagnet": 3837,
      "Ġhelicopter": 3838,
      "aroo": 3839,
      "Ġshield": 3840,
      "Ġexplain": 3841,
      "angaroo": 3842,
      "Ġhuman": 3843,
      "Ġrepe": 3844,
      "aurant": 3845,
      "ĠBrownie": 3846,
      "Tommy": 3847,
      "Ġneedle": 3848,
      "Ġcush": 3849,
      "Ġorganize": 3850,
      "gn": 3851,
      "Ġsomewhere": 3852,
      "Ġfive": 3853,
      "Ġrestaurant": 3854,
      "Ġgiggle": 3855,
      "gging": 3856,
      "Ġcats": 3857,
      "Ġcows": 3858,
      "Ġleop": 3859,
      "Ġvine": 3860,
      "Ġanyway": 3861,
      "If": 3862,
      "Ġbarrel": 3863,
      "ser": 3864,
      "Ġkangaroo": 3865,
      "ĠRo": 3866,
      "Ġbet": 3867,
      "Ġvide": 3868,
      "Ġmonkeys": 3869,
      "Ġattic": 3870,
      "Ġsplit": 3871,
      "Ġsticker": 3872,
      "Timmy": 3873,
      "ĠJerry": 3874,
      "Ġcooked": 3875,
      "Ġlions": 3876,
      "ĠCharl": 3877,
      "Ġreco": 3878,
      "Ġwishes": 3879,
      "Ġostrich": 3880,
      "ophone": 3881,
      "Ġdess": 3882,
      "enry": 3883,
      "Ġthief": 3884,
      "ÅĵThat": 3885,
      "ĠRed": 3886,
      "Ġthread": 3887,
      "Ġchubby": 3888,
      "Ġpoem": 3889,
      "Ġants": 3890,
      "ĠEverything": 3891,
      "Ġsandbox": 3892,
      "Ġfurther": 3893,
      "Ġbackpack": 3894,
      "Ġharsh": 3895,
      "Ġseal": 3896,
      "Ġpun": 3897,
      "Ġgoal": 3898,
      "Ġdistant": 3899,
      "Ġrespectful": 3900,
      "ebook": 3901,
      "Ġtap": 3902,
      "inking": 3903,
      "Ġscrew": 3904,
      "Ġradio": 3905,
      "Ġnotebook": 3906,
      "Ġvi": 3907,
      "Ġpaws": 3908,
      "ummer": 3909,
      "astic": 3910,
      "enny": 3911,
      "Ġribb": 3912,
      "stairs": 3913,
      "Ġholes": 3914,
      "Ġunpack": 3915,
      "Ġfinds": 3916,
      "Ġraven": 3917,
      "par": 3918,
      "Ġmuff": 3919,
      "Ġsent": 3920,
      "ĠBet": 3921,
      "Ġsepar": 3922,
      "Ġpushes": 3923,
      "iskers": 3924,
      "Ġmath": 3925,
      "Ġfireman": 3926,
      "Ġmodest": 3927,
      "Ġstirred": 3928,
      "Ġswitch": 3929,
      "ĠBunny": 3930,
      "Ġalligator": 3931,
      "Ġsteps": 3932,
      "Ġstared": 3933,
      "Ġelev": 3934,
      "orable": 3935,
      "ĠWhiskers": 3936,
      "Ġfrowned": 3937,
      "Ġpackage": 3938,
      "night": 3939,
      "Ġsweater": 3940,
      "Ġleopard": 3941,
      "Ġhedge": 3942,
      "Ġavoc": 3943,
      "Ġpand": 3944,
      "Ġcardboard": 3945,
      "ĠMaria": 3946,
      "Ġbicycle": 3947,
      "hood": 3948,
      "stic": 3949,
      "Ġwheat": 3950,
      "Ġmicr": 3951,
      "ipping": 3952,
      "Ġlid": 3953,
      "Ġrice": 3954,
      "Ġcube": 3955,
      "Ġsize": 3956,
      "Ġsheet": 3957,
      "Ġelevator": 3958,
      "Ġsoar": 3959,
      "Ġfort": 3960,
      "Ġdrawings": 3961,
      "cycle": 3962,
      "Ġbikes": 3963,
      "Ġbehave": 3964,
      "ĠSmith": 3965,
      "Ġjokes": 3966,
      "Ġlightning": 3967,
      "Ġcandle": 3968,
      "Ġur": 3969,
      "Ġadorable": 3970,
      "Ġimpro": 3971,
      "iastic": 3972,
      "Ġsilver": 3973,
      "Ġenthusiastic": 3974,
      "Ġmeat": 3975,
      "Ġbreat": 3976,
      "ci": 3977,
      "Ġhive": 3978,
      "iron": 3979,
      "Ġbears": 3980,
      "Ġsort": 3981,
      "Ġhaircut": 3982,
      "ĠAnnie": 3983,
      "elery": 3984,
      "Ġexper": 3985,
      "Ġspeak": 3986,
      "gie": 3987,
      "ĠSnow": 3988,
      "Ġhappier": 3989,
      "Ġfle": 3990,
      "heart": 3991,
      "Ġdessert": 3992,
      "Ġmicrophone": 3993,
      "ĠLee": 3994,
      "come": 3995,
      "Ġsle": 3996,
      "Ġloop": 3997,
      "Ġchain": 3998,
      "irit": 3999,
      "Ġquite": 4000,
      "Ġrepair": 4001,
      "Ġhall": 4002,
      "Ġeither": 4003,
      "aila": 4004,
      "ccol": 4005,
      "Ġpal": 4006,
      "uct": 4007,
      "ccoli": 4008,
      "Ġenerg": 4009,
      "Ġstretch": 4010,
      "Ġrecogn": 4011,
      "Ġtroubled": 4012,
      "Ġquar": 4013,
      "reci": 4014,
      "ĠTr": 4015,
      "Ġmarry": 4016,
      "Ġoy": 4017,
      "Ġchalk": 4018,
      "Ġprov": 4019,
      "aulif": 4020,
      "Ġtripped": 4021,
      "Ġswinging": 4022,
      "cast": 4023,
      "Ġboots": 4024,
      "Ġpole": 4025,
      "Ġappreci": 4026,
      "Ġroared": 4027,
      "Ġlistening": 4028,
      "Ġriding": 4029,
      "ĠPap": 4030,
      "Ġpaid": 4031,
      "Ġjellyfish": 4032,
      "Ġgro": 4033,
      "Ġstom": 4034,
      "ĠWill": 4035,
      "Ġdishes": 4036,
      "ailable": 4037,
      "Ġgolf": 4038,
      "Ġpapers": 4039,
      "Ġpor": 4040,
      "Ġforgave": 4041,
      "Ġshovel": 4042,
      "Ġcact": 4043,
      "Ġoat": 4044,
      "year": 4045,
      "Ġlip": 4046,
      "Ġchecked": 4047,
      "Ġsandcast": 4048,
      "Ġrescue": 4049,
      "Ġclapping": 4050,
      "ĠRos": 4051,
      "ĠMag": 4052,
      "Ġscold": 4053,
      "Ġrod": 4054,
      "Ġbrus": 4055,
      "ĠRu": 4056,
      "Ġshelter": 4057,
      "eer": 4058,
      "ĠdidnÃ¢": 4059,
      "Ġmama": 4060,
      "Ġinse": 4061,
      "Ġwallet": 4062,
      "Ġbin": 4063,
      "cond": 4064,
      "Ġsecond": 4065,
      "Ġbuzz": 4066,
      "Ġavailable": 4067,
      "Ġcelery": 4068,
      "Ġsock": 4069,
      "Ġobser": 4070,
      "fee": 4071,
      "Ġink": 4072,
      "Ġshakes": 4073,
      "Ġpushing": 4074,
      "happy": 4075,
      "Ġtriangle": 4076,
      "Ġeraser": 4077,
      "ĠCharlie": 4078,
      "ffee": 4079,
      "Ġmessage": 4080,
      "Ġcaulif": 4081,
      "ĠHarry": 4082,
      "Ġpeek": 4083,
      "Ġgrapes": 4084,
      "Ġpalace": 4085,
      "Ġalive": 4086,
      "Ġtrains": 4087,
      "Ġshopkeeper": 4088,
      "ĠHenry": 4089,
      "Ġtrop": 4090,
      "Ġcolours": 4091,
      "Ġfalling": 4092,
      "Ġknot": 4093,
      "Ġfeelings": 4094,
      "Ġbroccoli": 4095,
      "Ġsailor": 4096,
      "ĠPapa": 4097,
      "Ġpoint": 4098,
      "ube": 4099,
      "Ġrag": 4100,
      "Ġcountry": 4101,
      "Ġbreaks": 4102,
      "Ġcostume": 4103,
      "Ġcactus": 4104,
      "Ġspirit": 4105,
      "Ġlear": 4106,
      "Ġraft": 4107,
      "Ġsmells": 4108,
      "Ġjudge": 4109,
      "Ġyach": 4110,
      "olin": 4111,
      "Ġlearnt": 4112,
      "Ġsummer": 4113,
      "Ġlaser": 4114,
      "Ġonion": 4115,
      "Ġsoftly": 4116,
      "Ġtuna": 4117,
      "ron": 4118,
      "render": 4119,
      "Ġshrimp": 4120,
      "Ġscooter": 4121,
      "Ġtrophy": 4122,
      "Ġluck": 4123,
      "Ġputting": 4124,
      "Ġclimbing": 4125,
      "Ġended": 4126,
      "Ġpolish": 4127,
      "Ġraining": 4128,
      "Ġcrystal": 4129,
      "Ġmen": 4130,
      "Ġmild": 4131,
      "Ġreind": 4132,
      "Ġart": 4133,
      "ĠOr": 4134,
      "azz": 4135,
      "ĠLilly": 4136,
      "play": 4137,
      "bul": 4138,
      "Ġstarting": 4139,
      "reeze": 4140,
      "ucked": 4141,
      "Ġvisited": 4142,
      "Ġzoomed": 4143,
      "Ġrubber": 4144,
      "edy": 4145,
      "Ġtreasures": 4146,
      "Ġbasketball": 4147,
      "ooped": 4148,
      "Ġunhappy": 4149,
      "Ġhoping": 4150,
      "Ġrolling": 4151,
      "Ġsprink": 4152,
      "Ġstrugg": 4153,
      "Ġappl": 4154,
      "ĠWould": 4155,
      "Ġenergy": 4156,
      "Ġgiven": 4157,
      "Ġcauliflower": 4158,
      "ef": 4159,
      "Ġtube": 4160,
      "Ġol": 4161,
      "Ġyacht": 4162,
      "sist": 4163,
      "Ġlaund": 4164,
      "Ġpilot": 4165,
      "Ġpipe": 4166,
      "aled": 4167,
      "Ġped": 4168,
      "Ġlaundry": 4169,
      "Ġunlock": 4170,
      "Ġpenguin": 4171,
      "Ġsaus": 4172,
      "icer": 4173,
      "Ġneighbour": 4174,
      "Ġcooler": 4175,
      "Ġhotel": 4176,
      "Ġframe": 4177,
      "Ġhadn": 4178,
      "Ġreindeer": 4179,
      "Ġflies": 4180,
      "Ġdive": 4181,
      "Ġdisplay": 4182,
      "Ġtricks": 4183,
      "Ġcups": 4184,
      "Ġbarks": 4185,
      "Ġkay": 4186,
      "Ġquit": 4187,
      "Ġbelt": 4188,
      "Ha": 4189,
      "Ġshort": 4190,
      "Ġthanks": 4191,
      "ĠKate": 4192,
      "ĠJess": 4193,
      "Ġbul": 4194,
      "Ġsweetheart": 4195,
      "Ġbur": 4196,
      "Ġcoffee": 4197,
      "ait": 4198,
      "Ġpeach": 4199,
      "Ġdisag": 4200,
      "ecause": 4201,
      "ĠInst": 4202,
      "Ġairport": 4203,
      "Ġincl": 4204,
      "ĠBaby": 4205,
      "Mia": 4206,
      "kelet": 4207,
      "sely": 4208,
      "Ġoil": 4209,
      "Ġevening": 4210,
      "Ġdrops": 4211,
      "Ġjournal": 4212,
      "Ġfilm": 4213,
      "Ġsym": 4214,
      "Ġshade": 4215,
      "Ġthrows": 4216,
      "Ġlawy": 4217,
      "Dad": 4218,
      "Ġtax": 4219,
      "Ġcord": 4220,
      "ides": 4221,
      "Ġstuffed": 4222,
      "Ġcushion": 4223,
      "ney": 4224,
      "Ġfolder": 4225,
      "Ġbulb": 4226,
      "Ġlives": 4227,
      "Ġpad": 4228,
      "Ġskill": 4229,
      "Ġiron": 4230,
      "seum": 4231,
      "pe": 4232,
      "Ġmarched": 4233,
      "hino": 4234,
      "Ġclosely": 4235,
      "Ġbananas": 4236,
      "Ġphoto": 4237,
      "zzy": 4238,
      "Ġambul": 4239,
      "Ġvend": 4240,
      "Ġleaned": 4241,
      "nger": 4242,
      "Ġtub": 4243,
      "Ġpanda": 4244,
      "ĠBun": 4245,
      "Ġsurrender": 4246,
      "Ġfootball": 4247,
      "Ġfisher": 4248,
      "Ġstrawberry": 4249,
      "ense": 4250,
      "Ġinsist": 4251,
      "Ġmuseum": 4252,
      "Ġplanet": 4253,
      "Ġwool": 4254,
      "Ġpair": 4255,
      "Ġfauc": 4256,
      "Ġcounter": 4257,
      "Ġporch": 4258,
      "ges": 4259,
      "keleton": 4260,
      "Ġlend": 4261,
      "bol": 4262,
      "ito": 4263,
      "Ġdiary": 4264,
      "Ġpainter": 4265,
      "affe": 4266,
      "Ġsymbol": 4267,
      "Ġtheater": 4268,
      "Ġcherries": 4269,
      "Ġambulance": 4270,
      "Ġtaxi": 4271,
      "Ġax": 4272,
      "Ġrhino": 4273,
      "Ġswung": 4274,
      "Ġcomplete": 4275,
      "Ġwaving": 4276,
      "ites": 4277,
      "Ġfrogs": 4278,
      "eath": 4279,
      "Ġheads": 4280,
      "Ġsteak": 4281,
      "Ġfields": 4282,
      "Ġapologized": 4283,
      "Ġfaucet": 4284,
      "izes": 4285,
      "Ġviolin": 4286,
      "Ġlie": 4287,
      "ccer": 4288,
      "ple": 4289,
      "quito": 4290,
      "mand": 4291,
      "Ġforgotten": 4292,
      "Ġinsect": 4293,
      "Ġplastic": 4294,
      "Ġreef": 4295,
      "nam": 4296,
      "Ġhut": 4297,
      "Ġmule": 4298,
      "Ġcheek": 4299,
      "..": 4300,
      "Ġpage": 4301,
      "ckey": 4302,
      "Ġhockey": 4303,
      "Ġpowder": 4304,
      "âĤ¬âĢľ": 4305,
      "Ġsoccer": 4306,
      "ÅĵYou": 4307,
      "Ġmagaz": 4308,
      "Ġimagine": 4309,
      "Ġlime": 4310,
      "Ġcable": 4311,
      "ĠMiss": 4312,
      "Ġimagination": 4313,
      "erop": 4314,
      "Ġshouldn": 4315,
      "eropl": 4316,
      "Ġaeropl": 4317,
      "Ġvet": 4318,
      "Ġmos": 4319,
      "Ġbaking": 4320,
      "ween": 4321,
      "Ġtrail": 4322,
      "Ġwinter": 4323,
      "Ġsunset": 4324,
      "Ġskeleton": 4325,
      "aused": 4326,
      "Ġwife": 4327,
      "Ġcreated": 4328,
      "Ġbetween": 4329,
      "angu": 4330,
      "Ġbelongs": 4331,
      "Ġgiraffe": 4332,
      "Ġquarrel": 4333,
      "Ġvendor": 4334,
      "Ġlangu": 4335,
      "Ġpirates": 4336,
      "ĠDanny": 4337,
      "Ġmosquito": 4338,
      "any": 4339,
      "Ġsoil": 4340,
      "Ġplayer": 4341,
      "Ġsir": 4342,
      "Ġchirp": 4343,
      "ected": 4344,
      "Ġgrocer": 4345,
      "Ġkitty": 4346,
      "Ġaxe": 4347,
      "Ġrever": 4348,
      "iling": 4349,
      "ctory": 4350,
      "ĠInstead": 4351,
      "ories": 4352,
      "aces": 4353,
      "Ġpoints": 4354,
      "ĠTony": 4355,
      "urch": 4356,
      "ues": 4357,
      "Ġbreeze": 4358,
      "Ġwipe": 4359,
      "Ġmotorcycle": 4360,
      "Ġtemple": 4361,
      "ĠTed": 4362,
      "Ġherb": 4363,
      "Ġeagerly": 4364,
      "Ġyogurt": 4365,
      "Ġsneak": 4366,
      "Ġslept": 4367,
      "anic": 4368,
      "ĠMaggie": 4369,
      "Ġfactory": 4370,
      "Ġminute": 4371,
      "ippery": 4372,
      "Ġshouting": 4373,
      "nament": 4374,
      "Ġslippery": 4375,
      "Ġattention": 4376,
      "Ġstud": 4377,
      "Ġmeeting": 4378,
      "Ġkayak": 4379,
      "Ġlawyer": 4380,
      "Jim": 4381,
      "chair": 4382,
      "ĠKat": 4383,
      "Ġblowing": 4384,
      "Ġfisherman": 4385,
      "chanic": 4386,
      "Ġperfectly": 4387,
      "Ġmixer": 4388,
      "Ġcane": 4389,
      "ĠRosie": 4390,
      "Ġnovel": 4391,
      "Ġornament": 4392,
      "Ġseeing": 4393,
      "Ġpoke": 4394,
      "Ġargue": 4395,
      "Ġglowing": 4396,
      "imi": 4397,
      "Ġmechanic": 4398,
      "Ġpit": 4399,
      "Ġfishing": 4400,
      "Ġsprayed": 4401,
      "Ġchickens": 4402,
      "Ġseas": 4403,
      "Ġoffer": 4404,
      "spap": 4405,
      "imney": 4406,
      "Ġvest": 4407,
      "Ġmaze": 4408,
      "Ġheaded": 4409,
      "ĠJames": 4410,
      "Ġnewspap": 4411,
      "men": 4412,
      "Ġweather": 4413,
      "Ġtwink": 4414,
      "Ġarmchair": 4415,
      "Ġavocado": 4416,
      "Ġnapkin": 4417,
      "Ġskull": 4418,
      "ĠdonÃ¢": 4419,
      "Ġblankets": 4420,
      "Ġcelebrated": 4421,
      "Ġrot": 4422,
      "Ġsung": 4423,
      "Ġchimney": 4424,
      "ison": 4425,
      "place": 4426,
      "Ġglove": 4427,
      "Ġhopes": 4428,
      "Ġitch": 4429,
      "Ġzipper": 4430,
      "lass": 4431,
      "Ġgreedy": 4432,
      "iture": 4433,
      "Ġflame": 4434,
      "urniture": 4435,
      "Ġbaseball": 4436,
      "Ġsquirrels": 4437,
      "inarian": 4438,
      "Your": 4439,
      "eterinarian": 4440,
      "Ġfurniture": 4441,
      "aud": 4442,
      "Ġgolden": 4443,
      "Ġmystery": 4444,
      "Ġvideo": 4445,
      "Ġflea": 4446,
      "Ġtoil": 4447,
      "Ġshower": 4448,
      "Ġmoves": 4449,
      "ĠAb": 4450,
      "Ġveterinarian": 4451,
      "Ġknob": 4452,
      "ceros": 4453,
      "Ġwelcomed": 4454,
      "Ġdoors": 4455,
      "Ġoyster": 4456,
      "Ġsniffed": 4457,
      "Ġpetals": 4458,
      "Ġwags": 4459,
      "Ġparent": 4460,
      "Ġkingdom": 4461,
      "Ġfollows": 4462,
      "Ġtoilet": 4463,
      "Ġhar": 4464,
      "erc": 4465,
      "Ġble": 4466,
      "Ġhappens": 4467,
      "Ġcalls": 4468,
      "Ġmemories": 4469,
      "Ġbury": 4470,
      "Jack": 4471,
      "Ġdiscu": 4472,
      "Ġfreez": 4473,
      "sing": 4474,
      "Ġmop": 4475,
      "ĠClara": 4476,
      "ĠJul": 4477,
      "Ġjunk": 4478,
      "Ġtear": 4479,
      "reek": 4480,
      "ĠGod": 4481,
      "Ġhanging": 4482,
      "Ġlawn": 4483,
      "Ġwriting": 4484,
      "Ġrhinoceros": 4485,
      "was": 4486,
      "Ġcreek": 4487,
      "Ġlotion": 4488,
      "Ġapplaud": 4489,
      "mm": 4490,
      "ĠMay": 4491,
      "ĠMimi": 4492,
      "Ġvroom": 4493,
      "Ġsticky": 4494,
      "unately": 4495,
      "Mama": 4496,
      "Ġsurround": 4497,
      "washer": 4498,
      "elcome": 4499,
      "Ġreve": 4500,
      "Ġsque": 4501,
      "Ġfireplace": 4502,
      "Ġquack": 4503,
      "Ġthrowing": 4504,
      "Mum": 4505,
      "llie": 4506,
      "Ġminer": 4507,
      "Ġdishwasher": 4508,
      "hero": 4509,
      "Ġexerc": 4510,
      "Ġcoal": 4511,
      "ler": 4512,
      "Ġtrave": 4513,
      "Ġsuperhero": 4514,
      "Ġaeroplane": 4515,
      "lasses": 4516,
      "And": 4517,
      "Ġweigh": 4518,
      "Ġprun": 4519,
      "Ġpopped": 4520,
      "Ġmedal": 4521,
      "Ġpassport": 4522,
      "Ġpine": 4523,
      "Ġshoulder": 4524,
      "Ġburned": 4525,
      "Ġsunglasses": 4526,
      "tain": 4527,
      "ĠSee": 4528,
      "Ġstaff": 4529,
      "Ġchurch": 4530,
      "Ġignored": 4531,
      "tress": 4532,
      "Ġshrugged": 4533,
      "Ġdear": 4534,
      "Ġveil": 4535,
      "Ġmattress": 4536,
      "Ġclassroom": 4537,
      "low": 4538,
      "Ġbother": 4539,
      "aws": 4540,
      "Ġig": 4541,
      "Ġigloo": 4542,
      "rosc": 4543,
      "Ġgrin": 4544,
      "orses": 4545,
      "Ġregret": 4546,
      "iday": 4547,
      "Ġcob": 4548,
      "Ġflapped": 4549,
      "Ġcollected": 4550,
      "Ġagre": 4551,
      "Ġworth": 4552,
      "Ġdancer": 4553,
      "ĠFirst": 4554,
      "Ġsailing": 4555,
      "Ġcrib": 4556,
      "Molly": 4557,
      "roscope": 4558,
      "Ġtug": 4559,
      "Ġsince": 4560,
      "Ġhorses": 4561,
      "Ġinvest": 4562,
      "Ġbattery": 4563,
      "ring": 4564,
      "asis": 4565,
      "ores": 4566,
      "Ġcrow": 4567,
      "ĠSte": 4568,
      "una": 4569,
      "ssible": 4570,
      "Ġmistakes": 4571,
      "Ġmicroscope": 4572,
      "Ġswamp": 4573,
      "Ġlanguage": 4574,
      "Ġfought": 4575,
      "Ġbouncing": 4576,
      "Ġpresents": 4577,
      "Ġseparate": 4578,
      "Ġoak": 4579,
      "Ġfloat": 4580,
      "Ġskirt": 4581,
      "Ġagree": 4582,
      "Ġinvestig": 4583,
      "ety": 4584,
      "Ġquietly": 4585,
      "Ġstreng": 4586,
      "Ġpastry": 4587,
      "right": 4588,
      "rod": 4589,
      "web": 4590,
      "inked": 4591,
      "Ġoasis": 4592,
      "ĠIÃ¢": 4593,
      "case": 4594,
      "Ġinf": 4595,
      "Ġdressed": 4596,
      "Ġeaten": 4597,
      "Wait": 4598,
      "Ġcared": 4599,
      "Ġintrod": 4600,
      "Ġstable": 4601,
      "Ġmakeup": 4602,
      "Ġbeef": 4603,
      "Ġcandles": 4604,
      "Ġstrength": 4605,
      "vision": 4606,
      "Ġhol": 4607,
      "Ġblackboard": 4608,
      "Ġalarm": 4609,
      "Ġcaring": 4610,
      "Ġprevent": 4611,
      "Ġmagazine": 4612,
      "Ġnewspaper": 4613,
      "Ġholiday": 4614,
      "Because": 4615,
      "Ġapart": 4616,
      "Ġcrawling": 4617,
      "Ġsizes": 4618,
      "Ġcobweb": 4619,
      "te": 4620,
      "medi": 4621,
      "ĠTrue": 4622,
      "Ġcell": 4623,
      "ĠSad": 4624,
      "Ġstraight": 4625,
      "Ġmarried": 4626,
      "mediately": 4627,
      "Ġcomplain": 4628,
      "Ġscolded": 4629,
      "Ġchoice": 4630,
      "ggy": 4631,
      "Ġcoats": 4632,
      "Ġrooms": 4633,
      "Ġsnap": 4634,
      "Ġsqueezed": 4635,
      "Ġtrusted": 4636,
      "Ġinvestigate": 4637,
      "Ġfog": 4638,
      "anges": 4639,
      "Ġpist": 4640,
      "Ġpur": 4641,
      "Ġaccepted": 4642,
      "omes": 4643,
      "Ġgym": 4644,
      "Ġthumb": 4645,
      "ĠHelp": 4646,
      "chie": 4647,
      "Ġtelevision": 4648,
      "Ġweep": 4649,
      "ĠEach": 4650,
      "Ġberry": 4651,
      "Ġpistol": 4652,
      "Ġpra": 4653,
      "ĠLuck": 4654,
      "Ġradish": 4655,
      "Ġkisses": 4656,
      "Ġwhisper": 4657,
      "ab": 4658,
      "Ġsteam": 4659,
      "Qu": 4660,
      "ĠSnowy": 4661,
      "ction": 4662,
      "Ġsqueeze": 4663,
      "Ġattach": 4664,
      "Ġshrink": 4665,
      "Ġreaches": 4666,
      "Ġnews": 4667,
      "Ġticket": 4668,
      "ĠitÃ¢": 4669,
      "Ġyield": 4670,
      "Ġpuddles": 4671,
      "Ġsplashing": 4672,
      "Ġappro": 4673,
      "Ġperfu": 4674,
      "Ġceiling": 4675,
      "Ġrelaxed": 4676,
      "ĠLuckily": 4677,
      "Ġmusician": 4678,
      "Ġamazement": 4679,
      "Ġentered": 4680,
      "Ġrake": 4681,
      "Did": 4682,
      "Ġsigh": 4683,
      "Ġunif": 4684,
      "Ġjewelry": 4685,
      "Ġblood": 4686,
      "Ġblinked": 4687,
      "Ġletting": 4688,
      "Ġlicks": 4689,
      "ĠBuzz": 4690,
      "Ġwandered": 4691,
      "Ġteleph": 4692,
      "Ġbirdc": 4693,
      "Ġcastles": 4694,
      "Ġwigg": 4695,
      "sters": 4696,
      "Ġperfume": 4697,
      "ives": 4698,
      "Ġdelay": 4699,
      "Ġchairs": 4700,
      "ups": 4701,
      "Ġharb": 4702,
      "Ġuniform": 4703,
      "Ġbirdcage": 4704,
      "mend": 4705,
      "Ġstro": 4706,
      "Ġeasily": 4707,
      "ÅĵItÃ¢": 4708,
      "ising": 4709,
      "Ġyucky": 4710,
      "Ġopera": 4711,
      "Ġdemand": 4712,
      "Ġhelper": 4713,
      "Ġsuff": 4714,
      "Ġfiref": 4715,
      "Ġtelephone": 4716,
      "Thanks": 4717,
      "Ġyoga": 4718,
      "house": 4719,
      "Ġhurting": 4720,
      "Ġserve": 4721,
      "omeday": 4722,
      "ommend": 4723,
      "Ġblueberries": 4724,
      "hic": 4725,
      "Ġrise": 4726,
      "Ġraz": 4727,
      "Ġbookcase": 4728,
      "Ġgrowled": 4729,
      "ĠWho": 4730,
      "ĠRuby": 4731,
      "chor": 4732,
      "Ġrecommend": 4733,
      "Ġpinch": 4734,
      "Ġfreezer": 4735,
      "sit": 4736,
      "Ġrequ": 4737,
      "Ġspear": 4738,
      "Ġclaws": 4739,
      "Ġkeeping": 4740,
      "Ġvehic": 4741,
      "Ġcliff": 4742,
      "Ġsandcastle": 4743,
      "Ġgrill": 4744,
      "Ġchess": 4745,
      "Ġcrash": 4746,
      "ĠHowever": 4747,
      "Ġbathe": 4748,
      "achel": 4749,
      "Ġwaffle": 4750,
      "Ġsub": 4751,
      "Ġpuzzles": 4752,
      "Ġmatches": 4753,
      "Is": 4754,
      "Ġplates": 4755,
      "Ġdisappear": 4756,
      "cakes": 4757,
      "Ġtucked": 4758,
      "Ġcrossed": 4759,
      "Ġmustache": 4760,
      "Ġtong": 4761,
      "Ġfile": 4762,
      "Ġward": 4763,
      "Ġsurprises": 4764,
      "Ġrail": 4765,
      "Ġconf": 4766,
      "Ġhearts": 4767,
      "Ġribbon": 4768,
      "Ġharbor": 4769,
      "ival": 4770,
      "Ġimprove": 4771,
      "Ġdried": 4772,
      "Ġtrade": 4773,
      "Ġplanes": 4774,
      "Ġwardrobe": 4775,
      "Ġsi": 4776,
      "ived": 4777,
      "Ġtut": 4778,
      "Ġmint": 4779,
      "ĠRachel": 4780,
      "Ġwine": 4781,
      "alley": 4782,
      "Ġbelow": 4783,
      "Ġrequest": 4784,
      "Ġcabinet": 4785,
      "Ġbill": 4786,
      "ionary": 4787,
      "Ġanchor": 4788,
      "Ġvac": 4789,
      "Ġsomeday": 4790,
      "raged": 4791,
      "Ġwarmth": 4792,
      "Ġtoes": 4793,
      "Ġcaptain": 4794,
      "ictionary": 4795,
      "Ġrazor": 4796,
      "ĠFo": 4797,
      "Ġrefre": 4798,
      "Ġapron": 4799,
      "Ġpoked": 4800,
      "Ġincre": 4801,
      "Ġbleed": 4802,
      "Ġdictionary": 4803,
      "ĠMe": 4804,
      "amber": 4805,
      "Ġvalley": 4806,
      "fortunately": 4807,
      "Ġscattered": 4808,
      "lier": 4809,
      "Ġwaste": 4810,
      "ĠFreddy": 4811,
      "Ġpear": 4812,
      "Ġfuel": 4813,
      "Ġboot": 4814,
      "Ġspade": 4815,
      "Ġkneel": 4816,
      "Ġskills": 4817,
      "uch": 4818,
      "Ġmass": 4819,
      "ucture": 4820,
      "Ġsupply": 4821,
      "Ġknown": 4822,
      "Ġstructure": 4823,
      "Ġsafety": 4824,
      "ah": 4825,
      "Ġblouse": 4826,
      "ĠPeople": 4827,
      "Ġlaught": 4828,
      "Ġdifferen": 4829,
      "Ġspending": 4830,
      "Ġlemonade": 4831,
      "Ġmuffin": 4832,
      "ĠKatie": 4833,
      "Ġlumber": 4834,
      "Ġspots": 4835,
      "ĠTina": 4836,
      "Ġfollowing": 4837,
      "Ġdresses": 4838,
      "Ġexperience": 4839,
      "Ġinstr": 4840,
      "Ġcuddled": 4841,
      "Ġisn": 4842,
      "âĤ¬.": 4843,
      "Ġmoments": 4844,
      "Ġbalan": 4845,
      "ĠPoppy": 4846,
      "Ġaut": 4847,
      "Ġsaving": 4848,
      "Ġlaughter": 4849,
      "ĠV": 4850,
      "Ġcub": 4851,
      "ĠOllie": 4852,
      "Ġfallen": 4853,
      "ĠPenny": 4854,
      "'.": 4855,
      "Ġsnapped": 4856,
      "Ġideas": 4857,
      "Ġunderstanding": 4858,
      "Yuck": 4859,
      "Ġmyself": 4860,
      "Ġfastest": 4861,
      "ĠSpike": 4862,
      "Ġprop": 4863,
      "Ġstrawberries": 4864,
      "Ġcale": 4865,
      "Ġairpl": 4866,
      "ampoo": 4867,
      "Ġcalend": 4868,
      "oral": 4869,
      "Ġworms": 4870,
      "Ġtornado": 4871,
      "Ġfest": 4872,
      "Ġraise": 4873,
      "Ġrow": 4874,
      "Ġmissile": 4875,
      "Ġjewels": 4876,
      "Ġcalendar": 4877,
      "Ġsneeze": 4878,
      "Ġremove": 4879,
      "Ġflutter": 4880,
      "Ġbeans": 4881,
      "Ġlugg": 4882,
      "icing": 4883,
      "Ġburied": 4884,
      "Ġluggage": 4885,
      "aped": 4886,
      "Ġtaller": 4887,
      "Ġyawned": 4888,
      "Ġweap": 4889,
      "Ġimmediately": 4890,
      "riger": 4891,
      "Ġbravely": 4892,
      "Ġsparkling": 4893,
      "Ġringing": 4894,
      "ĠMilly": 4895,
      "Ġenter": 4896,
      "Ġrefriger": 4897,
      "Ġbegged": 4898,
      "Ġreverse": 4899,
      "Ġrefrigerator": 4900,
      "Ġshampoo": 4901,
      "Ġrabbits": 4902,
      "Ġearlier": 4903,
      "Ġbumped": 4904,
      "ero": 4905,
      "Ġroot": 4906,
      "Ġbookshe": 4907,
      "Ġhits": 4908,
      "Ġdestroyed": 4909,
      "Ġlic": 4910,
      "Ġignore": 4911,
      "Ġinfant": 4912,
      "Ġport": 4913,
      "Ġsettled": 4914,
      "Welcome": 4915,
      "ĠJoy": 4916,
      "Ġhardly": 4917,
      "Ġdire": 4918,
      "ĠLiz": 4919,
      "Ġappreciate": 4920,
      "vet": 4921,
      "Ġhomes": 4922,
      "Ġwashing": 4923,
      "Ġgear": 4924,
      "Ġbeamed": 4925,
      "Ġpages": 4926,
      "ĠHave": 4927,
      "Ġrhy": 4928,
      "Ġsocks": 4929,
      "htray": 4930,
      "Ġashtray": 4931,
      "Ġdestination": 4932,
      "rm": 4933,
      "ĠIts": 4934,
      "Ġchores": 4935,
      "Ġchamber": 4936,
      "Ġclimbs": 4937,
      "Ġprepare": 4938,
      "Ġtore": 4939,
      "Ġhanger": 4940,
      "anna": 4941,
      "Ġsigns": 4942,
      "'ve": 4943,
      "Ġcherry": 4944,
      "Ġbreathe": 4945,
      "Ġremain": 4946,
      "Ġtherm": 4947,
      "Ġtutor": 4948,
      "Ġpalm": 4949,
      "Ġreplace": 4950,
      "Ġsparkle": 4951,
      "ĠZoe": 4952,
      "Ġinvite": 4953,
      "Ġplays": 4954,
      "ission": 4955,
      "Ġdecorations": 4956,
      "Ġvanished": 4957,
      "Ġuniverse": 4958,
      "Ġtide": 4959,
      "reat": 4960,
      "ĠCo": 4961,
      "ari": 4962,
      "Ġsolved": 4963,
      "Ġpermission": 4964,
      "Ġpraised": 4965,
      "Ġpride": 4966,
      "inky": 4967,
      "ĠEveryday": 4968,
      "ĠBetsy": 4969,
      "Ġvacation": 4970,
      "To": 4971,
      "Ġtongue": 4972,
      "Ġbookshelf": 4973,
      "Ġpoison": 4974,
      "bbie": 4975,
      "Ġhills": 4976,
      "Ġadmir": 4977,
      "Ġdeeper": 4978,
      "Ġscooped": 4979,
      "Ġsits": 4980,
      "Sp": 4981,
      "Ġscore": 4982,
      "Ġsparkles": 4983,
      "Ġexamine": 4984,
      "Ġstomach": 4985,
      "Ġthermomet": 4986,
      "nies": 4987,
      "Ġfestival": 4988,
      "Ġteaching": 4989,
      "Ġinsisted": 4990,
      "omob": 4991,
      "ĠNut": 4992,
      "Ġfloated": 4993,
      "Ġquiz": 4994,
      "Ġcrunch": 4995,
      "Ġscratch": 4996,
      "Ġalright": 4997,
      "ĠGood": 4998,
      "bbles": 4999,
      "Ġautomob": 5000,
      "osed": 5001,
      "Ġsimp": 5002,
      "xture": 5003,
      "Ġmailman": 5004,
      "Ġreceived": 5005,
      "Ġdifference": 5006,
      "Ġdaisy": 5007,
      "ops": 5008,
      "Ġbelieved": 5009,
      "Ġchirping": 5010,
      "Ġthermometer": 5011,
      "Ġbang": 5012,
      "Ġdigg": 5013,
      "Ġoranges": 5014,
      "Ġfloating": 5015,
      "Ġpatiently": 5016,
      "Ġpanic": 5017,
      "ents": 5018,
      "Ġstruggling": 5019,
      "Ġachie": 5020,
      "asp": 5021,
      "Ġpulling": 5022,
      "Ġdigging": 5023,
      "Ġhers": 5024,
      "ĠIs": 5025,
      "Ġdrain": 5026,
      "Ġpunish": 5027,
      "Ġlicense": 5028,
      "Ġmodel": 5029,
      "ĠSteve": 5030,
      "Ġranch": 5031,
      "thm": 5032,
      "Ġprovide": 5033,
      "Ġdare": 5034,
      "Ġsty": 5035,
      "Ġupstairs": 5036,
      "Ġrepeat": 5037,
      "Ok": 5038,
      "Ġgifts": 5039,
      "Ġencouraged": 5040,
      "Ġmeasured": 5041,
      "Ġbuzzing": 5042,
      "Ġrestore": 5043,
      "ĠChirp": 5044,
      "igail": 5045,
      "antly": 5046,
      "Ġshooting": 5047,
      "Ġjail": 5048,
      "Ġglo": 5049,
      "Ġcollection": 5050,
      "Ġneighborhood": 5051,
      "Ġinvit": 5052,
      "iers": 5053,
      "Ġbrain": 5054,
      "Ġguy": 5055,
      "Ġbathrobe": 5056,
      "Ġrhythm": 5057,
      "Ġbites": 5058,
      "Ġnone": 5059,
      "Ġequ": 5060,
      "ĠMat": 5061,
      "Ġrespons": 5062,
      "bey": 5063,
      "osity": 5064,
      "sity": 5065,
      "Ġinclud": 5066,
      "ging": 5067,
      "Ġsew": 5068,
      "Ġgrape": 5069,
      "Ġcollecting": 5070,
      "Ġlabel": 5071,
      "Ġsausage": 5072,
      "Ġshot": 5073,
      "Ġworse": 5074,
      "Ġpatterns": 5075,
      "Ġapproached": 5076,
      "Ġsubway": 5077,
      "rise": 5078,
      "Ġmention": 5079,
      "ĠKing": 5080,
      "ĠAbigail": 5081,
      "Ġdiscuss": 5082,
      "Ġmall": 5083,
      "allen": 5084,
      "izard": 5085,
      "Ġelephants": 5086,
      "Ġweeks": 5087,
      "Ġwhip": 5088,
      "Ġtease": 5089,
      "Ġmassage": 5090,
      "Mmm": 5091,
      "Ġjazz": 5092,
      "Ġspaces": 5093,
      "Ġsprinkles": 5094,
      "xy": 5095,
      "Ġsore": 5096,
      "Ġmelted": 5097,
      "ĠFro": 5098,
      "Ġchallen": 5099,
      "Ġsetting": 5100,
      "Ġsupposed": 5101,
      "Ġsip": 5102,
      "Ġshed": 5103,
      "act": 5104,
      "Ġbuckle": 5105,
      "Ġsunrise": 5106,
      "Ġunite": 5107,
      "These": 5108,
      "Ġbillboard": 5109,
      "Ġgirls": 5110,
      "Ġtwisted": 5111,
      "Ġbricks": 5112,
      "ium": 5113,
      "Ġspit": 5114,
      "Ġleak": 5115,
      "Ġoper": 5116,
      "Ġexercise": 5117,
      "Ġitem": 5118,
      "Ġmeowed": 5119,
      "Ġflav": 5120,
      "Ġairplane": 5121,
      "Ġvehicle": 5122,
      "Ġwizard": 5123,
      "allow": 5124,
      "Ġparts": 5125,
      "Ġwatches": 5126,
      "Ġdiscovery": 5127,
      "Ġjogging": 5128,
      "Ġsoldiers": 5129,
      "fied": 5130,
      "Ġfut": 5131,
      "Ġhesit": 5132,
      "atch": 5133,
      "Ġbak": 5134,
      "Ġpoppy": 5135,
      "Ġfuture": 5136,
      "Ġpillows": 5137,
      "shing": 5138,
      "Ġhate": 5139,
      "Ġglowed": 5140,
      "Ġautomobile": 5141,
      "Ġgrey": 5142,
      "ude": 5143,
      "Ġuniversity": 5144,
      "Ġmarbles": 5145,
      "Ġgust": 5146,
      "Ġsport": 5147,
      "aspoon": 5148,
      "gy": 5149,
      "Ġmister": 5150,
      "Ġteaspoon": 5151,
      "Ġpigs": 5152,
      "Ġwhistled": 5153,
      "Ġgrocery": 5154,
      "Ġbrings": 5155,
      "Ġrush": 5156,
      "Ġfixing": 5157,
      "Ġgain": 5158,
      "Ġawe": 5159,
      "Ġevent": 5160,
      "ĠĠĠ": 5161,
      "Ġactually": 5162,
      "Ġheat": 5163,
      "Ġmanage": 5164,
      "Ġurge": 5165,
      "Ġlets": 5166,
      "Ġwarning": 5167,
      "Mummy": 5168,
      "Ġscratched": 5169,
      "ĠUnfortunately": 5170,
      "Jimmy": 5171,
      "Ġsuffer": 5172,
      "Not": 5173,
      "Ġbeg": 5174,
      "Ġslice": 5175,
      "Ġremained": 5176,
      "Ġthrilled": 5177,
      "Ġburning": 5178,
      "cles": 5179,
      "asc": 5180,
      "ases": 5181,
      "Ġseats": 5182,
      "Ġgrinned": 5183,
      "bers": 5184,
      "ÅĵNo": 5185,
      "Ġgrowl": 5186,
      "Ġpaused": 5187,
      "Ġsurrounded": 5188,
      "umble": 5189,
      "Ġproblems": 5190,
      "Ġsings": 5191,
      "Ġstad": 5192,
      "Ġlick": 5193,
      "ĠNutty": 5194,
      "Ġstadium": 5195,
      "Ġchir": 5196,
      "Ġworks": 5197,
      "Ġzipped": 5198,
      "Would": 5199,
      "ĠSharing": 5200,
      "Ġtoe": 5201,
      "Ġchirped": 5202,
      "eed": 5203,
      "ishing": 5204,
      "Ġspill": 5205,
      "ĠSomeone": 5206,
      "Ġnation": 5207,
      "ĠCat": 5208,
      "Ġweapon": 5209,
      "Ġdrinking": 5210,
      "Ġdrinks": 5211,
      "Ġtwigs": 5212,
      "Ouch": 5213,
      "Ġcakes": 5214,
      "Ġrust": 5215,
      "emember": 5216,
      "Ġwhistling": 5217,
      "Ġscur": 5218,
      "Ġpossible": 5219,
      "Ġracing": 5220,
      "Ġordered": 5221,
      "Ġeff": 5222,
      "Ġbeat": 5223,
      "Ġstrang": 5224,
      "Ġtracks": 5225,
      "Ġhurric": 5226,
      "Ġobserve": 5227,
      "Ġlect": 5228,
      "Ġpaints": 5229,
      "Ġreceive": 5230,
      "Ġtour": 5231,
      "Ġduring": 5232,
      "Ġsneezed": 5233,
      "Ġmarching": 5234,
      "Ġprayed": 5235,
      "do": 5236,
      "Ġwaffles": 5237,
      "ĠLuna": 5238,
      "ĠJam": 5239,
      "Ġlaid": 5240,
      "Ġdecision": 5241,
      "Ġwatered": 5242,
      "Ġhated": 5243,
      "cious": 5244,
      "ĠJe": 5245,
      "Ġours": 5246,
      "Ġsliding": 5247,
      "Ġmemory": 5248,
      "Ġx": 5249,
      "!\",": 5250,
      "Ġwherever": 5251,
      "Ġpotatoes": 5252,
      "Ġcontain": 5253,
      "Ġscreams": 5254,
      "Ġlecture": 5255,
      "Ġraised": 5256,
      "Ġwaits": 5257,
      "Ready": 5258,
      "Ġcrunchy": 5259,
      "Ġspaceship": 5260,
      "Ġpetted": 5261,
      "Ġspoons": 5262,
      "Ġcartoons": 5263,
      "Ġinvitation": 5264,
      "Ġhurricane": 5265,
      "!'": 5266,
      "Bob": 5267,
      "Ġearthqu": 5268,
      "ĠEl": 5269,
      "Ġcrashed": 5270,
      "Ġolive": 5271,
      "Ġsatis": 5272,
      "Ġlily": 5273,
      "Ġwarn": 5274,
      "Jill": 5275,
      "fy": 5276,
      "walk": 5277,
      "Ġfasc": 5278,
      "ities": 5279,
      "Ġflood": 5280,
      "Ġskipping": 5281,
      "Ġpeanuts": 5282,
      "Ġstrangers": 5283,
      "Ġtomatoes": 5284,
      "Ġfed": 5285,
      "Ġswims": 5286,
      "Ġcurled": 5287,
      "Ġoperation": 5288,
      "oved": 5289,
      "Ġmitten": 5290,
      "Ġfireworks": 5291,
      "Ġpupp": 5292,
      "Ġsunlight": 5293,
      "Ġrecognized": 5294,
      "ÅĵThatÃ¢": 5295,
      "Ġmineral": 5296,
      "Sh": 5297,
      "cc": 5298,
      "Ġremem": 5299,
      "Ġbeds": 5300,
      "Ġstrip": 5301,
      "Ġmeasuring": 5302,
      "hest": 5303,
      "ĠNot": 5304,
      "Ġvel": 5305,
      "Ġcircus": 5306,
      "Ġchewed": 5307,
      "Ġdisagreed": 5308,
      "Ġremembers": 5309,
      "Ġvelvet": 5310,
      "Ġsafari": 5311,
      "nday": 5312,
      "ĠSunday": 5313,
      "Ġplanted": 5314,
      "Yum": 5315,
      "Ġkindly": 5316,
      "ĠChirpy": 5317,
      "ipment": 5318,
      "Ġtalent": 5319,
      "Ġcontinue": 5320,
      "Ġlands": 5321,
      "Ġmouths": 5322,
      "Ġbuildings": 5323,
      "Ġsidewalk": 5324,
      "Ġeasier": 5325,
      "Ġprice": 5326,
      "Ġadmiring": 5327,
      "Ġequipment": 5328,
      "anny": 5329,
      "ĠAnne": 5330,
      "mother": 5331,
      "Ġcomfy": 5332,
      "Ġwond": 5333,
      "Ġmonsters": 5334,
      "Ġbrick": 5335,
      "Ġbes": 5336,
      "Ġsecrets": 5337,
      "ÅĵIÃ¢": 5338,
      "bbled": 5339,
      "Ġattached": 5340,
      "Ġfascin": 5341,
      "Ġmeow": 5342,
      "Ġglitter": 5343,
      "Ġappear": 5344,
      "ĠRemy": 5345,
      "Ġmountains": 5346,
      "Ġblueberry": 5347,
      "Ġhappiest": 5348,
      "ĠJan": 5349,
      "Ġtremb": 5350,
      "Ġflap": 5351,
      "Will": 5352,
      "Ġfet": 5353,
      "Ġescaped": 5354,
      "Ġfolded": 5355,
      "Ġrefreshed": 5356,
      "Ġbones": 5357,
      "Ġclearing": 5358,
      "Really": 5359,
      "Ġeffort": 5360,
      "seek": 5361,
      "ĠLetÃ¢": 5362,
      "Ġselling": 5363,
      "\",": 5364,
      "Ġwre": 5365,
      "Ġcompany": 5366,
      "Ġbringing": 5367,
      "son": 5368,
      "Ġgaz": 5369,
      "Ġapologize": 5370,
      "Ġprepared": 5371,
      "Ġgloves": 5372,
      "ĠChr": 5373,
      "Ġrevealed": 5374,
      "ĠSadly": 5375,
      "Ġearthquake": 5376,
      "ĠMoral": 5377,
      "Ġofficer": 5378,
      "Ġlips": 5379,
      "Ġbeside": 5380,
      "Ġwid": 5381,
      "Ġobey": 5382,
      "Ġnavy": 5383,
      "Ġonwards": 5384,
      "Ġweren": 5385,
      "Ġturning": 5386,
      "Ġtrapped": 5387,
      "Ġbleeding": 5388,
      "Ġcopper": 5389,
      "Ġanytime": 5390,
      "Ġsimple": 5391,
      "Ġweight": 5392,
      "Ġdoggy": 5393,
      "Ġmenu": 5394,
      "Ġsix": 5395,
      "Ġmuddy": 5396,
      "Ġguessed": 5397,
      "Al": 5398,
      "Ġleather": 5399,
      "Ġstripes": 5400,
      "ĠUncle": 5401,
      "enty": 5402,
      "Ġprecious": 5403,
      "Ġreminder": 5404,
      "ĠQu": 5405,
      "ĠAn": 5406,
      "Ġladyb": 5407,
      "Ġpets": 5408,
      "rs": 5409,
      "Ġwanting": 5410,
      "Ġdinosaurs": 5411,
      "Ġwaist": 5412,
      "Ġslip": 5413,
      "ĠOl": 5414,
      "Spot": 5415,
      "zag": 5416,
      "Ġgotten": 5417,
      "Ġsucceeded": 5418,
      "Ġhist": 5419,
      "Ġallow": 5420,
      "Ġbye": 5421,
      "loe": 5422,
      "Ġcatching": 5423,
      "Ġsteel": 5424,
      "Ġhistory": 5425,
      "aded": 5426,
      "Ġkeeper": 5427,
      "ĠFrank": 5428,
      "Ġsettle": 5429,
      "ĠBy": 5430,
      "Ġpeered": 5431,
      "Ġfirefight": 5432,
      "ĠSunny": 5433,
      "Ġbrand": 5434,
      "Ġcuddle": 5435,
      "Ġfash": 5436,
      "Ġoats": 5437,
      "ÅĵWe": 5438,
      "joyed": 5439,
      "Ġserved": 5440,
      "Ġeveryday": 5441,
      "Ġoverjoyed": 5442,
      "Ġvillag": 5443,
      "Ġfreeze": 5444,
      "idges": 5445,
      "Ġwisdom": 5446,
      "Ġpies": 5447,
      "Ġgained": 5448,
      "Ġscoop": 5449,
      "ĠJosh": 5450,
      "avid": 5451,
      "ÅĵThank": 5452,
      "Ġrested": 5453,
      "ĠFloppy": 5454,
      "Ġpermit": 5455,
      "Ġstyle": 5456,
      "ĠBeth": 5457,
      "Ġrained": 5458,
      "Ġperched": 5459,
      "Ġsoared": 5460,
      "Ġeats": 5461,
      "Ġpedal": 5462,
      "ĠSure": 5463,
      "Ġcutting": 5464,
      "Ġwonders": 5465,
      "Ġimage": 5466,
      "Ġtastes": 5467,
      "Ġshopping": 5468,
      "ĠChloe": 5469,
      "amb": 5470,
      "Ġprinter": 5471,
      "Ġbowed": 5472,
      "Ġcomforted": 5473,
      "Ġeagle": 5474,
      "ĠTiny": 5475,
      "igzag": 5476,
      "Ġwooden": 5477,
      "Ġshadows": 5478,
      "Ġpupil": 5479,
      "ĠJamie": 5480,
      "Ġbridges": 5481,
      "Ġrang": 5482,
      "ĠKe": 5483,
      "Ġwhatever": 5484,
      "ĠRa": 5485,
      "Ġvoices": 5486,
      "Ġsnowball": 5487,
      "Ġanswers": 5488,
      "ĠLucky": 5489,
      "Ġfamil": 5490,
      "Ġacorns": 5491,
      "mble": 5492,
      "Ġstealing": 5493,
      "Ġfashion": 5494,
      "ĠAm": 5495,
      "Ġdecides": 5496,
      "Ġvisiting": 5497,
      "anta": 5498,
      "Ġdrag": 5499,
      "Ġhurried": 5500,
      "Ġcostumes": 5501,
      "Ġstitch": 5502,
      "ĠSomething": 5503,
      "Ġbrushed": 5504,
      "Ġagreement": 5505,
      "Ġdownstairs": 5506,
      "ĠSpark": 5507,
      "Ġwrites": 5508,
      "Ġnails": 5509,
      "oming": 5510,
      "Ġbreaking": 5511,
      "Ġemerg": 5512,
      "ien": 5513,
      "nie": 5514,
      "Ġcrept": 5515,
      "Ġexact": 5516,
      "Ġstruggled": 5517,
      "Ġcreation": 5518,
      "Ġresponsible": 5519,
      "Ġvillagers": 5520,
      "ĠHoppy": 5521,
      "Ġripped": 5522,
      "ĠBig": 5523,
      "Ġtwirling": 5524,
      "len": 5525,
      "Ġsadness": 5526,
      "Ġcuriosity": 5527,
      "Ġbeneath": 5528,
      "Ġdisturbed": 5529,
      "ding": 5530,
      "icorn": 5531,
      "Ġunderground": 5532,
      "Ġunicorn": 5533,
      "Ġemergen": 5534,
      "Billy": 5535,
      "Ġpitch": 5536,
      "ĠDavid": 5537,
      "neath": 5538,
      "Ġtip": 5539,
      "Ġbun": 5540,
      "Ġweighed": 5541,
      "Ġtremble": 5542,
      "izing": 5543,
      "ĠPr": 5544,
      "Ġaccidents": 5545,
      "Ġmice": 5546,
      "ĠThese": 5547,
      "Ġpancakes": 5548,
      "gen": 5549,
      "Ġchef": 5550,
      "Daddy": 5551,
      "Ġfiremen": 5552,
      "Ġcomple": 5553,
      "Ġpracticing": 5554,
      "ĠBubbles": 5555,
      "ays": 5556,
      "ĠSuzy": 5557,
      "iggy": 5558,
      "ĠJulie": 5559,
      "isten": 5560,
      "ĠSanta": 5561,
      "Ġneighbors": 5562,
      "terday": 5563,
      "Ġexamined": 5564,
      "ĠHanna": 5565,
      "Ġvict": 5566,
      "Ġdoctors": 5567,
      "Ġgrandmother": 5568,
      "xygen": 5569,
      "Ġbare": 5570,
      "Ġdied": 5571,
      "Ġdecorated": 5572,
      "Ġlemons": 5573,
      "Ġargued": 5574,
      "ĠTilly": 5575,
      "ira": 5576,
      "Ġknelt": 5577,
      "Ġspiders": 5578,
      "Ġclaps": 5579,
      "Ġbegin": 5580,
      "Ġowned": 5581,
      "Ġnetwork": 5582,
      "Ġrides": 5583,
      "Ġpadd": 5584,
      "ĠLu": 5585,
      "ĠLike": 5586,
      "Ġsting": 5587,
      "Ġsoak": 5588,
      "She": 5589,
      "ales": 5590,
      "ĠLul": 5591,
      "Ġrecognize": 5592,
      "Ġladybug": 5593,
      "Ġrealize": 5594,
      "Ġpeel": 5595,
      "ĠPip": 5596,
      "Ġyelling": 5597,
      "Ġbeha": 5598,
      "Ġactiv": 5599,
      "rr": 5600,
      "ishes": 5601,
      "Ġbend": 5602,
      "Ġarea": 5603,
      "Ġinch": 5604,
      "Ġkeeps": 5605,
      "Ġzero": 5606,
      "Goodbye": 5607,
      "ĠBetty": 5608,
      "Ġrele": 5609,
      "Ġpinched": 5610,
      "Ġsnail": 5611,
      "Ġsitu": 5612,
      "Ġmission": 5613,
      "Ġkeys": 5614,
      "Ġencourage": 5615,
      "Ġprune": 5616,
      "uing": 5617,
      "ashed": 5618,
      "va": 5619,
      "ffic": 5620,
      "Ġwinning": 5621,
      "ley": 5622,
      "Ġexit": 5623,
      "rol": 5624,
      "Ġwondering": 5625,
      "Ġruin": 5626,
      "mare": 5627,
      "Ġwagging": 5628,
      "ĠBir": 5629,
      "Ġjogged": 5630,
      "Ġtraffic": 5631,
      "Ġaccom": 5632,
      "Ġexactly": 5633,
      "Ġloose": 5634,
      "ĠCla": 5635,
      "Ġzooming": 5636,
      "Ġstirring": 5637,
      "Ġolives": 5638,
      "Ġstudied": 5639,
      "Ġlines": 5640,
      "ĠFor": 5641,
      "Ġzigzag": 5642,
      "Ġpastel": 5643,
      "Ġtune": 5644,
      "Ġcape": 5645,
      "riage": 5646,
      "Ġsneaked": 5647,
      "Ġtugged": 5648,
      "Ġrelease": 5649,
      "ĠCar": 5650,
      "ĠKay": 5651,
      "Ġtickets": 5652,
      "Ġsatisfied": 5653,
      "Ġwreck": 5654,
      "ib": 5655,
      "Ġoxygen": 5656,
      "Ġeight": 5657,
      "Ġsiren": 5658,
      "Ġbunnies": 5659,
      "looking": 5660,
      "gers": 5661,
      "Ġunderneath": 5662,
      "ĠRob": 5663,
      "Ġunlocked": 5664,
      "Or": 5665,
      "Ġago": 5666,
      "Ġnightmare": 5667,
      "Ġbuckets": 5668,
      "Ġchallenge": 5669,
      "Ye": 5670,
      "Ġoutdo": 5671,
      "Ġslapped": 5672,
      "Ġlandsc": 5673,
      "Ġhonk": 5674,
      "Ġinstruct": 5675,
      "Ġfascinated": 5676,
      "Ġcaut": 5677,
      "Ġnicer": 5678,
      "Ġaccompl": 5679,
      "Ġweb": 5680,
      "ĠStop": 5681,
      "Ġshivering": 5682,
      "Ġloving": 5683,
      "Ġpockets": 5684,
      "Ġstretching": 5685,
      "ĠAd": 5686,
      "Ġpiles": 5687,
      "Ġpunished": 5688,
      "zen": 5689,
      "Ġdent": 5690,
      "Ġmittens": 5691,
      "Ġplanned": 5692,
      "Ġprotected": 5693,
      "Ġsolut": 5694,
      "Ġneighbourhood": 5695,
      "ĠJessie": 5696,
      "ĠMil": 5697,
      "ĠAbby": 5698,
      "ĠCarl": 5699,
      "Ġcompetition": 5700,
      "Ġdraws": 5701,
      "Ġgathering": 5702,
      "Ġproperly": 5703,
      "ĠAfterwards": 5704,
      "Ġitems": 5705,
      "Ġcontrol": 5706,
      "Ġsupplies": 5707,
      "Ġemergency": 5708,
      "Ġlied": 5709,
      "Ġshoulders": 5710,
      "ĠHa": 5711,
      "indy": 5712,
      "Ġparked": 5713,
      "Ġtravell": 5714,
      "ĠLulu": 5715,
      "ĠClaire": 5716,
      "Ġsights": 5717,
      "Ġsoaring": 5718,
      "Ġmarkers": 5719,
      "Ġlandscape": 5720,
      "ik": 5721,
      "kins": 5722,
      "ÅĵCan": 5723,
      "Ġperfor": 5724,
      "Gra": 5725,
      "ĠMart": 5726,
      "ĠItÃ¢": 5727,
      "Ġpearl": 5728,
      "ÅĵDon": 5729,
      "Ġruler": 5730,
      "Ġdeser": 5731,
      "Ġfetch": 5732,
      "Ġfrosting": 5733,
      "ĠOut": 5734,
      "Ġbouncy": 5735,
      "ĠCoco": 5736,
      "Ġann": 5737,
      "ica": 5738,
      "Ġstruck": 5739,
      "Ġtouching": 5740,
      "ĠHannah": 5741,
      "Ġinstructions": 5742,
      "Happy": 5743,
      "Ġburrow": 5744,
      ".'": 5745,
      "Ġpeaches": 5746,
      "Ġprinted": 5747,
      "Ġloaded": 5748,
      "inda": 5749,
      "Ġsisters": 5750,
      "ĠSusan": 5751,
      "omas": 5752,
      "thank": 5753,
      "Ġfoods": 5754,
      "Ġmuscles": 5755,
      "Ġintroduc": 5756,
      "Ġbarely": 5757,
      "ÅĵLook": 5758,
      "Ġmarks": 5759,
      "bbing": 5760,
      "Ġopin": 5761,
      "Ġstole": 5762,
      "Ġcrumb": 5763,
      "Ġdrift": 5764,
      "Ġmixing": 5765,
      "Ġincrease": 5766,
      "Ġvictory": 5767,
      "Ġtonight": 5768,
      "Ġdam": 5769,
      "agull": 5770,
      "Ġfrozen": 5771,
      "Ġrainbows": 5772,
      "Ġapplauded": 5773,
      "Ġmast": 5774,
      "Ġbudge": 5775,
      "Ġsilence": 5776,
      "ĠMatt": 5777,
      "bric": 5778,
      "ury": 5779,
      "Ġsides": 5780,
      "Ġeast": 5781,
      "Ġfabric": 5782,
      "Ġstrings": 5783,
      "Ġrocked": 5784,
      "Ġune": 5785,
      "ĠRabbit": 5786,
      "ĠDid": 5787,
      "Ġourselves": 5788,
      "Ġteasing": 5789,
      "Ġrubbing": 5790,
      "Ġvent": 5791,
      "Ġgiggling": 5792,
      "âĤ¬âĢĿ": 5793,
      "Ġsoaked": 5794,
      "Ġguns": 5795,
      "Ġbank": 5796,
      "Ġseagull": 5797,
      "Ġoutdoors": 5798,
      "ena": 5799,
      "Ġpretti": 5800,
      "aky": 5801,
      "Ġplanets": 5802,
      "Ġprettiest": 5803,
      "Ġbottles": 5804,
      "Ġbrushes": 5805,
      "Ġcompleted": 5806,
      "Ġreleased": 5807,
      "edding": 5808,
      "Ġchases": 5809,
      "Ġsweeties": 5810,
      "Ġpouring": 5811,
      "uesday": 5812,
      "Ġscurried": 5813,
      "Ġdragons": 5814,
      "Ġbunch": 5815,
      "Ġvowed": 5816,
      "Ġpears": 5817,
      "Ġprints": 5818,
      "Ġseason": 5819,
      "oed": 5820,
      "Ġwest": 5821,
      "Ġstair": 5822,
      "Ġmovies": 5823,
      "Ġsurface": 5824,
      "Ġpurred": 5825,
      "bies": 5826,
      "oh": 5827,
      "Ġ1": 5828,
      "Ġtim": 5829,
      "Ġpoking": 5830,
      "ĠNina": 5831,
      "Ġbloomed": 5832,
      "Ġdemanded": 5833,
      "nes": 5834,
      "ĠHop": 5835,
      "ĠletÃ¢": 5836,
      "Ġbaked": 5837,
      "ĠMad": 5838,
      "ĠThomas": 5839,
      "Ġtickle": 5840,
      "Ġintroduce": 5841,
      "Little": 5842,
      "ux": 5843,
      "Ġmater": 5844,
      "Ġsteep": 5845,
      "Ġdiscovering": 5846,
      "Ġcamping": 5847,
      "Ġmateri": 5848,
      "ĠTuesday": 5849,
      "Ġbroom": 5850,
      "Ġdragged": 5851,
      "Ġwinner": 5852,
      "Ġmuffins": 5853,
      "uctantly": 5854,
      "Ġsighs": 5855,
      "Ex": 5856,
      "ednes": 5857,
      "imy": 5858,
      "Ġcatches": 5859,
      "Ġbabies": 5860,
      "ednesday": 5861,
      "Ġmachines": 5862,
      "Ġurged": 5863,
      "Ġmentioned": 5864,
      "zie": 5865,
      "Ġlux": 5866,
      "ĠSlow": 5867,
      "Ġherbs": 5868,
      "Ġda": 5869,
      "icked": 5870,
      "ÅĵHello": 5871,
      "ÅĵThis": 5872,
      "ĠGr": 5873,
      "Ġbeard": 5874,
      "ĠWednesday": 5875,
      "Ġroaring": 5876,
      "Ġsinger": 5877,
      "Ġscreaming": 5878,
      "Ġstamps": 5879,
      "Ġconfident": 5880,
      "ora": 5881,
      "Ġcones": 5882,
      "Ġproject": 5883,
      "Ġinterest": 5884,
      "Ġguys": 5885,
      "Ġdrives": 5886,
      "Ġhorns": 5887,
      "jam": 5888,
      "ĠJu": 5889,
      "Ġpretends": 5890,
      "avi": 5891,
      "Ġpowers": 5892,
      "Ġtexture": 5893,
      "ĠJones": 5894,
      "though": 5895,
      "Ġpassing": 5896,
      "ern": 5897,
      "ĠJon": 5898,
      "Ġcontest": 5899,
      "Ġribbons": 5900,
      "Ġcrowd": 5901,
      "Ġwound": 5902,
      "ĠLou": 5903,
      "ĠBoth": 5904,
      "Ġgoals": 5905,
      "ason": 5906,
      "Ġranger": 5907,
      "Ġchips": 5908,
      "Ġstudying": 5909,
      "Ġbalancing": 5910,
      "Ah": 5911,
      "Ġmatched": 5912,
      "Ġexpect": 5913,
      "Ġresult": 5914,
      "Ġsausages": 5915,
      "Ġdisagree": 5916,
      "ĠJeff": 5917,
      "Ġcal": 5918,
      "Ġpout": 5919,
      "Ġsorted": 5920,
      "Ġmarriage": 5921,
      "Ġhighest": 5922,
      "Ġpebbles": 5923,
      "Ġcurly": 5924,
      "Ġsuitc": 5925,
      "Ġkicking": 5926,
      "Ġgazed": 5927,
      "Ġshock": 5928,
      "Ġforgi": 5929,
      "Ġcuts": 5930,
      "Ġreluctantly": 5931,
      "Ġpatience": 5932,
      "ĠPipp": 5933,
      "ĠJenna": 5934,
      "Ġshelves": 5935,
      "Ġshivered": 5936,
      "Ġge": 5937,
      "ĠLizzy": 5938,
      "Ġhugging": 5939,
      "Ġchat": 5940,
      "Ġstrike": 5941,
      "Ġrepeated": 5942,
      "fit": 5943,
      "Ġyouth": 5944,
      "Ġwaiter": 5945,
      "Ġcurtains": 5946,
      "Ġfault": 5947,
      "Ġacted": 5948,
      "ĠZoom": 5949,
      "Ġsway": 5950,
      "Ġwedding": 5951,
      "Ġgrant": 5952,
      "Ġflags": 5953,
      "Ġplenty": 5954,
      "die": 5955,
      "Ġti": 5956,
      "int": 5957,
      "Ġfigured": 5958,
      "Somet": 5959,
      "xp": 5960,
      "ĠLinda": 5961,
      "Ġgoodnight": 5962,
      "Ġmatching": 5963,
      "ĠAlways": 5964,
      "Ġthreat": 5965,
      "ĠBye": 5966,
      "Ġpaintings": 5967,
      "Ġtwinkling": 5968,
      "Ġfart": 5969,
      "Ġoutfit": 5970,
      "Ġincluded": 5971,
      "Ġcautious": 5972,
      "Ġslimy": 5973,
      "Ġpoliceman": 5974,
      "Ġchewing": 5975,
      "eezing": 5976,
      "Ġdusty": 5977,
      "Ġregretted": 5978,
      "esome": 5979,
      "Ġtheirs": 5980,
      "Ġsweets": 5981,
      "Ġentire": 5982,
      "Ġsolution": 5983,
      "Ġintroduced": 5984,
      "Remember": 5985,
      "ĠMira": 5986,
      "Ġtowels": 5987,
      "irts": 5988,
      "Ġsorting": 5989,
      "Ġblooming": 5990,
      "Ġpenguins": 5991,
      "Ġsituation": 5992,
      "ĠAdam": 5993,
      "ĠYes": 5994,
      "Ġthro": 5995,
      "usted": 5996,
      "ledge": 5997,
      "Ġrecorded": 5998,
      "xpected": 5999,
      "Ġstare": 6000,
      "Ġguest": 6001,
      "Ġinclude": 6002,
      "ĠSlowly": 6003,
      "Ġthroat": 6004,
      "ivery": 6005,
      "you": 6006,
      "Ġflat": 6007,
      "Ġrocking": 6008,
      "ults": 6009,
      "Ġachieve": 6010,
      "hins": 6011,
      "uly": 6012,
      "ĠKayla": 6013,
      "Ġunexpected": 6014,
      "Uh": 6015,
      "bl": 6016,
      "mas": 6017,
      "Ġheel": 6018,
      "Ġknowledge": 6019,
      "bert": 6020,
      "ĠChrist": 6021,
      "ĠLuke": 6022,
      "ĠcanÃ¢": 6023,
      "Ġprunes": 6024,
      "Today": 6025,
      "Ġdentist": 6026,
      "igi": 6027,
      "Ġblink": 6028,
      "Ġsticking": 6029,
      "Ġcheering": 6030,
      "izzie": 6031,
      "Ġlibrarian": 6032,
      "Ġrescued": 6033,
      "Ġagrees": 6034,
      "Ġstaring": 6035,
      "Ġtruly": 6036,
      "Ġsnugg": 6037,
      "Ġspraying": 6038,
      "cuse": 6039,
      "ĠMon": 6040,
      "Ġroots": 6041,
      "Ġawesome": 6042,
      "Ġluxury": 6043,
      "jamas": 6044,
      "vin": 6045,
      "Ġcompletely": 6046,
      "Yeah": 6047,
      "ÅĵDonÃ¢": 6048,
      "iar": 6049,
      "hell": 6050,
      "Ġast": 6051,
      "itely": 6052,
      "Ġcaused": 6053,
      "Ġhomework": 6054,
      "Ġwritten": 6055,
      "Ġmotion": 6056,
      "...": 6057,
      "Ġlap": 6058,
      "Ġlearns": 6059,
      "Ġuses": 6060,
      "Ġgrowling": 6061,
      "Ġarguing": 6062,
      "Ġboom": 6063,
      "Ġimportance": 6064,
      "Ġcreating": 6065,
      "Ġzookeeper": 6066,
      "ĠChristmas": 6067,
      "Ġbravery": 6068,
      "Ġwandering": 6069,
      "Ġtrembling": 6070,
      "Excuse": 6071,
      "hello": 6072,
      "Ġdared": 6073,
      "Ġshined": 6074,
      "Ġexha": 6075,
      "Ġscales": 6076,
      "Ġrolls": 6077,
      "Ġroads": 6078,
      "go": 6079,
      "Ġslap": 6080,
      "Ġdelivery": 6081,
      "Ġworkers": 6082,
      "Ġcrackers": 6083,
      "njoy": 6084,
      "vers": 6085,
      "oys": 6086,
      "Ġarrive": 6087,
      "Ġdirection": 6088,
      "immer": 6089,
      "ÅĵOh": 6090,
      "Ġreaching": 6091,
      "Ġsafer": 6092,
      "ĠAunt": 6093,
      "Ġreplac": 6094,
      "Ġbead": 6095,
      "ĠCindy": 6096,
      "Ġkneeled": 6097,
      "ĠTess": 6098,
      "ĠLizzie": 6099,
      "Ġbelly": 6100,
      "ĠMel": 6101,
      "asm": 6102,
      "Ġsnakes": 6103,
      "Ġwires": 6104,
      "Ġscra": 6105,
      "Ġcomm": 6106,
      "Ġstruggle": 6107,
      "ĠMilo": 6108,
      "Ch": 6109,
      "When": 6110,
      "ĠJazz": 6111,
      "opes": 6112,
      "boat": 6113,
      "Ġexpected": 6114,
      "Ġexhausted": 6115,
      "une": 6116,
      "icky": 6117,
      "Ġhealed": 6118,
      "Ġorganizing": 6119,
      "Ġventured": 6120,
      "Ġwink": 6121,
      "Ġmane": 6122,
      "Ġlamb": 6123,
      "Ġbecoming": 6124,
      "Ġgreet": 6125,
      "lowers": 6126,
      "Ġcrumbs": 6127,
      "ences": 6128,
      "lee": 6129,
      "Ġflames": 6130,
      "ĠSuzie": 6131,
      "Ġusual": 6132,
      "ĠLeave": 6133,
      "Ġcrabs": 6134,
      "Ġdolphins": 6135,
      "ĠEx": 6136,
      "ĠGigi": 6137,
      "ĠJohnson": 6138,
      "oline": 6139,
      "Ġpajamas": 6140,
      "Ġinviting": 6141,
      "Ġworries": 6142,
      "angled": 6143,
      "Ġleader": 6144,
      "Ġpencils": 6145,
      "irm": 6146,
      "Ġunited": 6147,
      "Ġowners": 6148,
      "Ġstorekeeper": 6149,
      "ÅĵWhy": 6150,
      "ĠPandy": 6151,
      "Ġpacking": 6152,
      "Ġrelief": 6153,
      "ĠBuzzy": 6154,
      "Ġbaker": 6155,
      "Ġheav": 6156,
      "Ġboo": 6157,
      "Ġfirm": 6158,
      "Ġpolishing": 6159,
      "Ġpots": 6160,
      "Ġtraveled": 6161,
      "ĠHappy": 6162,
      "Ġtimer": 6163,
      "Ġcash": 6164,
      "Ġfairies": 6165,
      "Ġsuitcase": 6166,
      "ĠyouÃ¢": 6167,
      "Ġcloses": 6168,
      "ĠJulia": 6169,
      "Ġcough": 6170,
      "Ġworker": 6171,
      "Ġpartic": 6172,
      "Ġrockets": 6173,
      "Just": 6174,
      "ĠY": 6175,
      "ĠMa": 6176,
      "Ġpatted": 6177,
      "Ġtrips": 6178,
      "Ġvanish": 6179,
      "Ġradishes": 6180,
      "Ġpeeking": 6181,
      "Ġdirect": 6182,
      "ĠwasnÃ¢": 6183,
      "Ġvalued": 6184,
      "Ġprayer": 6185,
      "Ġseems": 6186,
      "Ġquacked": 6187,
      "ĠQuack": 6188,
      "Ġfara": 6189,
      "Ġstartled": 6190,
      "ĠDolly": 6191,
      "Ġmisses": 6192,
      "ĠFox": 6193,
      "Ġfaraway": 6194,
      "Ġcent": 6195,
      "iding": 6196,
      "ĠMomo": 6197,
      "Ġcountryside": 6198,
      "ĠFriend": 6199,
      "Ġmelting": 6200,
      "Ġphotos": 6201,
      "Ġitchy": 6202,
      "Ġusually": 6203,
      "Ġgroceries": 6204,
      "Ġflavor": 6205,
      "Sometimes": 6206,
      "Ġcans": 6207,
      "Ġrestored": 6208,
      "Ġreveal": 6209,
      "Ġwiggled": 6210,
      "Ġinterested": 6211,
      "ords": 6212,
      "Ġstern": 6213,
      "Ġremoved": 6214,
      "ĠFinn": 6215,
      "Ġfuzzy": 6216,
      "Ġbalanced": 6217,
      "Ġseesaw": 6218,
      "Ġresting": 6219,
      "ĠBeing": 6220,
      "Ġscru": 6221,
      "Ġknights": 6222,
      "Ġstem": 6223,
      "Ġchuck": 6224,
      "Ġopening": 6225,
      "Ġteaches": 6226,
      "Bad": 6227,
      "Fine": 6228,
      "Ġrisk": 6229,
      "ĠBo": 6230,
      "Ġwrist": 6231,
      "Ġcracked": 6232,
      "Ġwinked": 6233,
      "Ġopinion": 6234,
      "Ġcous": 6235,
      "ids": 6236,
      "Ġleap": 6237,
      "Ġeverybody": 6238,
      "Ġdesert": 6239,
      "Ġsneaky": 6240,
      "Ġhissed": 6241,
      "Ġrubs": 6242,
      "Ġobserved": 6243,
      "Ġtwinkle": 6244,
      "pite": 6245,
      "Ġcause": 6246,
      "Ġcott": 6247,
      "Ġsled": 6248,
      "ĠChe": 6249,
      "Ġunf": 6250,
      "ĠJessica": 6251,
      "Ġparticular": 6252,
      "Ġlined": 6253,
      "Ġden": 6254,
      "Ġseven": 6255,
      "Ġroses": 6256,
      "Ġprincesses": 6257,
      "Ġpastels": 6258,
      "Ġpoems": 6259,
      "Ro": 6260,
      "Ġsigned": 6261,
      "Ġtickled": 6262,
      "ĠFollow": 6263,
      "Ġfaced": 6264,
      "Ġtractor": 6265,
      "ĠNan": 6266,
      "Ġmagnets": 6267,
      "Ġactivities": 6268,
      "ĠTara": 6269,
      "Ġwasted": 6270,
      "Ġswooped": 6271,
      "brush": 6272,
      "Ġseashell": 6273,
      "Ġsnowballs": 6274,
      "Run": 6275,
      "dies": 6276,
      "rance": 6277,
      "Ġrings": 6278,
      "ĠDoggy": 6279,
      "Ġreply": 6280,
      "Ġsilent": 6281,
      "umm": 6282,
      "Ġstaying": 6283,
      "Ġsingle": 6284,
      "Ġadding": 6285,
      "Ġcubes": 6286,
      "Ġbeads": 6287,
      "ĠTwo": 6288,
      "Ġcoloured": 6289,
      "Ġsandcastles": 6290,
      "Ġreplaced": 6291,
      "Ġhi": 6292,
      "Ġkites": 6293,
      "Ġswirl": 6294,
      "Ġstolen": 6295,
      "acob": 6296,
      "Ġtricked": 6297,
      "Ġmarker": 6298,
      "Ġprovided": 6299,
      "Ġfirefighters": 6300,
      "Then": 6301,
      "Ġga": 6302,
      "ĠSorry": 6303,
      "Ġhowever": 6304,
      "Ġremote": 6305,
      "Ġfarther": 6306,
      "Ġfreed": 6307,
      "isies": 6308,
      "ĠPut": 6309,
      "ĠLena": 6310,
      "Ġnaps": 6311,
      "Ġlollipops": 6312,
      "Ġdaisies": 6313,
      "Ġlung": 6314,
      "Ġdipped": 6315,
      "Ġwears": 6316,
      "Ġbowls": 6317,
      "ÅĵWhatÃ¢": 6318,
      "Ġpaddled": 6319,
      "Ġspike": 6320,
      "ĠEmmy": 6321,
      "Ġcashier": 6322,
      "ĠMick": 6323,
      "ĠEarth": 6324,
      "ĠDays": 6325,
      "Ġcolored": 6326,
      "Ġpastries": 6327,
      "Ġnect": 6328,
      "ĠEnjoy": 6329,
      "Ġbadge": 6330,
      "Ġnectar": 6331,
      "Ġsobbed": 6332,
      "ĠWithout": 6333,
      "Ġcelebration": 6334,
      "ĠKeep": 6335,
      "ĠMany": 6336,
      "Ġlogs": 6337,
      "coat": 6338,
      "ĠOw": 6339,
      "Ġslam": 6340,
      "ÅĵMommy": 6341,
      "Ġdarkness": 6342,
      "Ġprotecting": 6343,
      "ĠSophia": 6344,
      "Ġminerals": 6345,
      "Ġaff": 6346,
      "ĠLarry": 6347,
      "Ġliqu": 6348,
      "Ġtallest": 6349,
      "Ġmarked": 6350,
      "Ġawake": 6351,
      "Ġcopy": 6352,
      "Ġsquealed": 6353,
      "Ġstroll": 6354,
      "Ġty": 6355,
      "Ġbumpy": 6356,
      "Ġsnat": 6357,
      "Ġforehead": 6358,
      "Ġsmiley": 6359,
      "Ġfilling": 6360,
      "Ġsplashes": 6361,
      "ĠRover": 6362,
      "hile": 6363,
      "ĠJacob": 6364,
      "Ġrobb": 6365,
      "ĠEverybody": 6366,
      "Ġwipes": 6367,
      "Ġhelmets": 6368,
      "Ġmasks": 6369,
      "abel": 6370,
      "Ġtalented": 6371,
      "Ġyounger": 6372,
      "bbly": 6373,
      "Ġtwin": 6374,
      "Ġgems": 6375,
      "Ġcautiously": 6376,
      "tle": 6377,
      "Ġyourselves": 6378,
      "Ġstays": 6379,
      "Ġglasses": 6380,
      "ĠNothing": 6381,
      "Ġgaze": 6382,
      "yond": 6383,
      "Ġwow": 6384,
      "Ġbeyond": 6385,
      "ĠBess": 6386,
      "Ġexplorers": 6387,
      "Ġraincoat": 6388,
      "Ġreads": 6389,
      "Ġpolished": 6390,
      "Ġblows": 6391,
      "Ġcovers": 6392,
      "Ġdirections": 6393,
      "Ġcust": 6394,
      "Ġhealth": 6395,
      "Ġtipt": 6396,
      "boo": 6397,
      "ĠWater": 6398,
      "ĠWatch": 6399,
      "ddled": 6400,
      "Ġlistens": 6401,
      "Ġattack": 6402,
      "Ġactions": 6403,
      "Ġsweat": 6404,
      "ĠMaya": 6405,
      "ĠSqu": 6406,
      "ĠNick": 6407,
      "Ġsailboat": 6408,
      "Ġmiles": 6409,
      "Ġentrance": 6410,
      "Ġfluttered": 6411,
      "Ġaccomplish": 6412,
      "ĠExc": 6413,
      "hee": 6414,
      "ĠJacky": 6415,
      "Ġbehavi": 6416,
      "Ġmushrooms": 6417,
      "Ġpedals": 6418,
      "Ġfamilies": 6419,
      "Ġchuckled": 6420,
      "Ġdots": 6421,
      "ĠGet": 6422,
      "Ġyesterday": 6423,
      "Ġsecure": 6424,
      "Ġclowns": 6425,
      "Ġrefle": 6426,
      "fl": 6427,
      "Ġsomebody": 6428,
      "Ġknees": 6429,
      "Ġspeaking": 6430,
      "Ġtricky": 6431,
      "cers": 6432,
      "Ġbars": 6433,
      "sty": 6434,
      "Ġjoking": 6435,
      "ĠRobby": 6436,
      "Ġbuying": 6437,
      "Ġseeker": 6438,
      "affes": 6439,
      "Ġinsects": 6440,
      "Ġcustom": 6441,
      "ĠExcited": 6442,
      "Ġopp": 6443,
      "Ġripe": 6444,
      "ppers": 6445,
      "ĠJay": 6446,
      "ĠPinky": 6447,
      "Ġconn": 6448,
      "Ġhider": 6449,
      "iki": 6450,
      "Ġfroze": 6451,
      "Ġbumps": 6452,
      "Ġknocks": 6453,
      "Ġcheeks": 6454,
      "ners": 6455,
      "Ġparties": 6456,
      "Ġgiraffes": 6457,
      "Ġbeginning": 6458,
      "Ëľ": 6459,
      "Ġmes": 6460,
      "iles": 6461,
      "âĤ¬Ëľ": 6462,
      "itches": 6463,
      "ĠOlive": 6464,
      "Ġliquid": 6465,
      "Ġmesmer": 6466,
      "Ġthorn": 6467,
      "Ġscaring": 6468,
      "Ġscarves": 6469,
      "Ġpleasure": 6470,
      "Ġdetermination": 6471,
      "Ġcandies": 6472,
      "uzz": 6473,
      "Ġmi": 6474,
      "ĠBird": 6475,
      "Ġbacked": 6476,
      "Ġhandful": 6477,
      "Ġfolding": 6478,
      "Ġdrums": 6479,
      "Ġvideos": 6480,
      "Ġleading": 6481,
      "Ġrecording": 6482,
      "Ġpaddle": 6483,
      "ĠSparky": 6484,
      "ouch": 6485,
      "ĠLau": 6486,
      "Ġdeal": 6487,
      "Ġmixture": 6488,
      "Ġpause": 6489,
      "Ġarrows": 6490,
      "Ġtangled": 6491,
      "Ġglee": 6492,
      "Ġchoices": 6493,
      "Ġinstrum": 6494,
      "band": 6495,
      "Ġpiggy": 6496,
      "alph": 6497,
      "Those": 6498,
      "Ġlighter": 6499,
      "Ġtasks": 6500,
      "Ġweeping": 6501,
      "Ġsense": 6502,
      "Ġlower": 6503,
      "Ġyells": 6504,
      "Rex": 6505,
      "Ġimproved": 6506,
      "Ġrecommended": 6507,
      "Ġcalmed": 6508,
      "Ġpouted": 6509,
      "igers": 6510,
      "urry": 6511,
      "Ġclick": 6512,
      "eke": 6513,
      "ths": 6514,
      "Ġcupcakes": 6515,
      "Ġsalty": 6516,
      "Ġrusty": 6517,
      "lay": 6518,
      "Ġinsp": 6519,
      "ĠMo": 6520,
      "Ġfever": 6521,
      "Ġpaying": 6522,
      "Ġsnatched": 6523,
      "arter": 6524,
      "arling": 6525,
      "Ġdef": 6526,
      "Ġsteer": 6527,
      "Ġbakery": 6528,
      "vest": 6529,
      "Ġrumble": 6530,
      "ĠCu": 6531,
      "Ġbedtime": 6532,
      "Ġruining": 6533,
      "ĠRobert": 6534,
      "ĠLaura": 6535,
      "Ġdiving": 6536,
      "Ġcelebrating": 6537,
      "Ġhesitated": 6538,
      "Ġwidened": 6539,
      "ĠHoot": 6540,
      "indr": 6541,
      "Ġraindr": 6542,
      "Ġafterwards": 6543,
      "Ġsnowmen": 6544,
      "Ġkicks": 6545,
      "ĠMikey": 6546,
      "rig": 6547,
      "rious": 6548,
      "Ġsmarter": 6549,
      "?\",": 6550,
      "Ġjackets": 6551,
      "Ġbehaved": 6552,
      "Ġwins": 6553,
      "Ġflapping": 6554,
      "aker": 6555,
      "Ġsnuck": 6556,
      "Ġstroked": 6557,
      "Ġlun": 6558,
      "iled": 6559,
      "ĠFar": 6560,
      "Ġsquares": 6561,
      "ĠAmel": 6562,
      "ĠSque": 6563,
      "ĠBinky": 6564,
      "Ġdances": 6565,
      "Ġobjects": 6566,
      "ĠPrin": 6567,
      "no": 6568,
      "Ġshirts": 6569,
      "sequ": 6570,
      "Ġcowb": 6571,
      "ossible": 6572,
      "Ġimpossible": 6573,
      "Ġunpacked": 6574,
      "Ġperforman": 6575,
      "Ġannoy": 6576,
      "Next": 6577,
      "Ġtigers": 6578,
      "ans": 6579,
      "ishy": 6580,
      "Ġconsequ": 6581,
      "ĠBluey": 6582,
      "Ġstomped": 6583,
      "bell": 6584,
      "cope": 6585,
      "Ġcreamy": 6586,
      "Ġacting": 6587,
      "Ġdelivered": 6588,
      "Ġhallway": 6589,
      "Ġachieved": 6590,
      "Ġaren": 6591,
      "Ġchoo": 6592,
      "Ġtramp": 6593,
      "Ġrule": 6594,
      "ronaut": 6595,
      "Ġartist": 6596,
      "Ġdeserve": 6597,
      "Ġmaterials": 6598,
      "Ġastronaut": 6599,
      "atur": 6600,
      "igning": 6601,
      "Ġnoon": 6602,
      "Ġnoses": 6603,
      "Ġindeed": 6604,
      "Ġchefs": 6605,
      "itched": 6606,
      "Ġrip": 6607,
      "ĠwouldnÃ¢": 6608,
      "Ġpans": 6609,
      "Ġtemper": 6610,
      "Ġornaments": 6611,
      "ccoon": 6612,
      "Ġraindrops": 6613,
      "tuce": 6614,
      "ĠWally": 6615,
      "aren": 6616,
      "Ġraccoon": 6617,
      "Ġlettuce": 6618,
      "ĠAsh": 6619,
      "Ġneedles": 6620,
      "Ġpointy": 6621,
      "Ġwraps": 6622,
      "Ġscratches": 6623,
      "Ġbasement": 6624,
      "Ġcomplained": 6625,
      "Ġcomplaining": 6626,
      "Ġsibl": 6627,
      "ĠFrosty": 6628,
      "Shh": 6629,
      "Grandma": 6630,
      "Ġsiblings": 6631,
      "ne": 6632,
      "ility": 6633,
      "ĠAbbie": 6634,
      "Ġlosing": 6635,
      "ĠPo": 6636,
      "ĠPam": 6637,
      "ĠTodd": 6638,
      "ivity": 6639,
      "?'": 6640,
      "Ġhus": 6641,
      "Ġsale": 6642,
      "Ġdarker": 6643,
      "Ġtempt": 6644,
      "ĠEls": 6645,
      "Ġdrifted": 6646,
      "Ġscrubbed": 6647,
      "ĠPrincess": 6648,
      "Ġtrampoline": 6649,
      "cl": 6650,
      "oni": 6651,
      "Ġrefu": 6652,
      "Ġmeals": 6653,
      "Ġpassen": 6654,
      "Ġscrews": 6655,
      "Ġburst": 6656,
      "Ġfluttering": 6657,
      "Ġtravelled": 6658,
      "weet": 6659,
      "ĠJune": 6660,
      "Ġdads": 6661,
      "ĠCra": 6662,
      "Ġteased": 6663,
      "ndpare": 6664,
      "Ġchop": 6665,
      "Ġcreativity": 6666,
      "Ġexperien": 6667,
      "Ġdiscussed": 6668,
      "Ġswimsuit": 6669,
      "Ġpuppies": 6670,
      "rigued": 6671,
      "Ġconsequences": 6672,
      "Ġneither": 6673,
      "Ġforgets": 6674,
      "ĠThanks": 6675,
      "ĠSadie": 6676,
      "Ġcoup": 6677,
      "Ġmerry": 6678,
      "Ġstool": 6679,
      "Ġweeke": 6680,
      "ĠMabel": 6681,
      "umbling": 6682,
      "Ġwrapping": 6683,
      "ĠMartha": 6684,
      "Ġweekend": 6685,
      "Ġhelpers": 6686,
      "Ġgrandpare": 6687,
      "ÅĵDo": 6688,
      "ĠLia": 6689,
      "Ġstung": 6690,
      "Ġgracefully": 6691,
      "Ġincluding": 6692,
      "Ġperformance": 6693,
      "ades": 6694,
      "Ġfears": 6695,
      "ÅĵWow": 6696,
      "ĠGina": 6697,
      "Ġtunnels": 6698,
      "ĠGoodbye": 6699,
      "Ġtiptoed": 6700,
      "Great": 6701,
      "ded": 6702,
      "Ġmer": 6703,
      "Ġthird": 6704,
      "Ġstain": 6705,
      "Ġdollars": 6706,
      "ĠKiki": 6707,
      "Ġcuddly": 6708,
      "Ġavoid": 6709,
      "Ġenthusi": 6710,
      "Ġtemperature": 6711,
      "oey": 6712,
      "ĠQ": 6713,
      "Ġgross": 6714,
      "ept": 6715,
      "ĠRalph": 6716,
      "ĠwonÃ¢": 6717,
      "anging": 6718,
      "ĠAlong": 6719,
      "Ġsource": 6720,
      "Ġenthusiasm": 6721,
      "Ġhearing": 6722,
      "itted": 6723,
      "Ġfact": 6724,
      "Ġseparated": 6725,
      "Ġonions": 6726,
      "Ġcoloring": 6727,
      "Ġhandsome": 6728,
      "Ġshrinking": 6729,
      "Ġneatly": 6730,
      "Ġgrowls": 6731,
      "immering": 6732,
      "Ġlimes": 6733,
      "Ġchip": 6734,
      "ĠDuring": 6735,
      "ÅĵCome": 6736,
      "Ġzipping": 6737,
      "ĠAlthough": 6738,
      "ĠAbi": 6739,
      "Ġafford": 6740,
      "Ġhusband": 6741,
      "Ġcouple": 6742,
      "Lucy": 6743,
      "atul": 6744,
      "anes": 6745,
      "Ġech": 6746,
      "Ġrising": 6747,
      "river": 6748,
      "step": 6749,
      "ueen": 6750,
      "Ġsnowfl": 6751,
      "Ġhides": 6752,
      "Ġrivers": 6753,
      "Ġaccomplishment": 6754,
      "Jane": 6755,
      "cus": 6756,
      "oke": 6757,
      "ĠLi": 6758,
      "Ġslices": 6759,
      "Ġdollhouse": 6760,
      "uggles": 6761,
      "ĠZoey": 6762,
      "Meow": 6763,
      "Ġcousin": 6764,
      "ky": 6765,
      "ntil": 6766,
      "Ġswept": 6767,
      "Ġgrabbing": 6768,
      "Ġbully": 6769,
      "Ġwindy": 6770,
      "Ġbeloved": 6771,
      "Ġpromises": 6772,
      "Ġplans": 6773,
      "ĠFarmer": 6774,
      "Ew": 6775,
      "Ġcor": 6776,
      "Ġgri": 6777,
      "Ġbeam": 6778,
      "choo": 6779,
      "Ġgrassy": 6780,
      "Ġpeacefully": 6781,
      "Ġhoriz": 6782,
      "ĠUntil": 6783,
      "hog": 6784,
      "pr": 6785,
      "Ġblocking": 6786,
      "Ġbows": 6787,
      "Ġbatteries": 6788,
      "ĠSnuggles": 6789,
      "Ġrewarded": 6790,
      "Le": 6791,
      "mallow": 6792,
      "weed": 6793,
      "Ġnine": 6794,
      "Ġthrown": 6795,
      "arshmallow": 6796,
      "Ġsprinkled": 6797,
      "Ġhorizon": 6798,
      "Ġplayers": 6799,
      "Ġwilling": 6800,
      "Ġstudents": 6801,
      "Ġdamage": 6802,
      "ĠJudy": 6803,
      "Roar": 6804,
      "Have": 6805,
      "Ġtodd": 6806,
      "ĠThose": 6807,
      "Ġamong": 6808,
      "Ġdreamt": 6809,
      "Ġmuscle": 6810,
      "Ġnapkins": 6811,
      "Ġneighbours": 6812,
      "Ġmatters": 6813,
      "Ġleaning": 6814,
      "Oops": 6815,
      "Whee": 6816,
      "Ġaud": 6817,
      "Ġdarling": 6818,
      "Ġbackwards": 6819,
      "Ġpecked": 6820,
      "Ġrecipe": 6821,
      "Ġbodies": 6822,
      "iece": 6823,
      "Ġtails": 6824,
      "Ġseaweed": 6825,
      "Ġwishing": 6826,
      "Ġseconds": 6827,
      "ĠJanie": 6828,
      "Ġforgiven": 6829,
      "ĠAmelia": 6830,
      "Ġhitting": 6831,
      "ĠSince": 6832,
      "ĠBee": 6833,
      "Ġwept": 6834,
      "Ġprinting": 6835,
      "ĠKaren": 6836,
      "Ġdecorating": 6837,
      "the": 6838,
      "Ġhour": 6839,
      "Ġalien": 6840,
      "Ġprett": 6841,
      "ÅĵHi": 6842,
      "ĠRy": 6843,
      "Ġheading": 6844,
      "Ġplanning": 6845,
      "ĠZip": 6846,
      "ĠTuna": 6847,
      "Ġdod": 6848,
      "Ġreass": 6849,
      "Ġgobbled": 6850,
      "Ġstarfish": 6851,
      "Ġfeeding": 6852,
      "Ġpraying": 6853,
      "Ġbuzzed": 6854,
      "ĠBirthday": 6855,
      "Ġconcer": 6856,
      "Ġtriangles": 6857,
      "ĠRobbie": 6858,
      "ÅĵYouÃ¢": 6859,
      "Ġcenter": 6860,
      "Ġdancers": 6861,
      "Ġpops": 6862,
      "Ġrepa": 6863,
      "Ġgasp": 6864,
      "ĠNobody": 6865,
      "Ġforks": 6866,
      "Ġrustling": 6867,
      "Ġsnuggle": 6868,
      "Ġheavier": 6869,
      "Ġprettier": 6870,
      "Woof": 6871,
      "ĠListen": 6872,
      "Ġdrawn": 6873,
      "Ġsurroundings": 6874,
      "Ġrequested": 6875,
      "Ġwarnings": 6876,
      "ĠMickey": 6877,
      "Ġrepaired": 6878,
      "wk": 6879,
      "Ġdet": 6880,
      "Ġspong": 6881,
      "Ġuns": 6882,
      "Ġstreets": 6883,
      "Ġdesigned": 6884,
      "ĠPatty": 6885,
      "Ġhedgehog": 6886,
      "Ġ10": 6887,
      "ĠQueen": 6888,
      "Ġdie": 6889,
      "ĠSun": 6890,
      "ados": 6891,
      "Ġarr": 6892,
      "Ġtreehouse": 6893,
      "Ġtwice": 6894,
      "ĠRemember": 6895,
      "Ġslower": 6896,
      "Ġwoof": 6897,
      "Ġtouc": 6898,
      "Ġplain": 6899,
      "Ġposter": 6900,
      "Ġmagician": 6901,
      "Ġwiping": 6902,
      "Ġvanilla": 6903,
      "itude": 6904,
      "Ġmarshmallow": 6905,
      "arrow": 6906,
      "Ġhawk": 6907,
      "ĠBack": 6908,
      "ĠBoun": 6909,
      "fus": 6910,
      "Ġache": 6911,
      "Ġembarrass": 6912,
      "Ġslammed": 6913,
      "Ġlungs": 6914,
      "fall": 6915,
      "ippy": 6916,
      "eds": 6917,
      "irrel": 6918,
      "Ġropes": 6919,
      "ongr": 6920,
      "Ġintrigued": 6921,
      "Ġcreations": 6922,
      "Ġforgetting": 6923,
      "ĠStella": 6924,
      "Ġthud": 6925,
      "Ġsuperheroes": 6926,
      "Ġhesitant": 6927,
      "Time": 6928,
      "Ġsy": 6929,
      "ĠSim": 6930,
      "Ġadult": 6931,
      "Ġcounts": 6932,
      "ments": 6933,
      "Ġspoonful": 6934,
      "Ġavocados": 6935,
      "Ġnood": 6936,
      "Ġskunk": 6937,
      "Ġpotion": 6938,
      "Ġaudience": 6939,
      "ongratul": 6940,
      "Ġwag": 6941,
      "Ġpens": 6942,
      "Ġscamp": 6943,
      "Ġflas": 6944,
      "ausing": 6945,
      "ĠOwl": 6946,
      "Ġspreading": 6947,
      "Ġborrowed": 6948,
      "ĠDavey": 6949,
      "Ġresisted": 6950,
      "ĠDr": 6951,
      "Ġblast": 6952,
      "Ġfocu": 6953,
      "Ġstands": 6954,
      "Ġbreathed": 6955,
      "ably": 6956,
      "Ġgeese": 6957,
      "Ġtoddler": 6958,
      "--": 6959,
      "Boo": 6960,
      "ition": 6961,
      "Ġsofter": 6962,
      "ently": 6963,
      "Ġswords": 6964,
      "Ġwarmer": 6965,
      "Ġfamiliar": 6966,
      "Ġsponge": 6967,
      "cake": 6968,
      "Ġsan": 6969,
      "llen": 6970,
      "Ġpeppers": 6971,
      "Ġjoyful": 6972,
      "Ġimagining": 6973,
      "Ġpresses": 6974,
      "Ġdelivering": 6975,
      "ĠFriends": 6976,
      "ĠSc": 6977,
      "Ġscrewd": 6978,
      "ĠPippin": 6979,
      "Ġscraped": 6980,
      "Ġtouches": 6981,
      "Yummy": 6982,
      "Ġpours": 6983,
      "ido": 6984,
      "Ġage": 6985,
      "Ġthroughout": 6986,
      "ĠRyan": 6987,
      "Ġmunch": 6988,
      "Ġnibb": 6989,
      "endy": 6990,
      "Ġchanging": 6991,
      "Ġhonked": 6992,
      "Ġzebras": 6993,
      "Ġsqueak": 6994,
      "Ġfirefighter": 6995,
      "Ġmesmerized": 6996,
      "eal": 6997,
      "ĠAng": 6998,
      "Ġroars": 6999,
      "Ġglued": 7000,
      "Ġwrink": 7001,
      "Ġremembering": 7002,
      "Ġtalks": 7003,
      "Ġpolar": 7004,
      "Ġbaths": 7005,
      "Ġshops": 7006,
      "Ġsports": 7007,
      "Ġfocused": 7008,
      "Ġscrewdriver": 7009,
      "opsy": 7010,
      "ĠEva": 7011,
      "Ġcuriously": 7012,
      "Ġdropping": 7013,
      "Ġcorners": 7014,
      "Ġwhispers": 7015,
      "Ġsank": 7016,
      "jo": 7017,
      "Ġnur": 7018,
      "allowed": 7019,
      "Ġleast": 7020,
      "Ġswallowed": 7021,
      "aster": 7022,
      "Ġlifts": 7023,
      "ael": 7024,
      "Ġspices": 7025,
      "ĠFido": 7026,
      "Ġblinking": 7027,
      "Ġpuff": 7028,
      "ichael": 7029,
      "Ġmints": 7030,
      "ounced": 7031,
      "ĠOnly": 7032,
      "Ġexpress": 7033,
      "ĠStan": 7034,
      "ĠGranny": 7035,
      "Ġgranted": 7036,
      "Jenny": 7037,
      "Ġspikes": 7038,
      "Ġsquishy": 7039,
      "Ġsailors": 7040,
      "Ġhopeful": 7041,
      "Ġtoaster": 7042,
      "ĠBessie": 7043,
      "ĠSqueaky": 7044,
      "Ġneare": 7045,
      "ĠElly": 7046,
      "arac": 7047,
      "Ġpeck": 7048,
      "Ġcrew": 7049,
      "Ġnecklaces": 7050,
      "Ġpostman": 7051,
      "Ġreflection": 7052,
      "Sally": 7053,
      "ears": 7054,
      "ĠTake": 7055,
      "Ġfeast": 7056,
      "Ġcond": 7057,
      "Ġposs": 7058,
      "Ġslips": 7059,
      "Ġsteady": 7060,
      "Ġpennies": 7061,
      "ĠZara": 7062,
      "Ġrefreshing": 7063,
      "ĠMeg": 7064,
      "ĠSquirrel": 7065,
      "Ġwobbled": 7066,
      "Ġtested": 7067,
      "Ġsniffs": 7068,
      "Ġgrandparents": 7069,
      "Ġmarshmallows": 7070,
      "yes": 7071,
      "Ġwakes": 7072,
      "Ġoh": 7073,
      "Ġrout": 7074,
      "Ġchos": 7075,
      "Ġsneezing": 7076,
      "Ġshaped": 7077,
      "Ġdived": 7078,
      "Ġoysters": 7079,
      "Ġincreased": 7080,
      "Ġchosen": 7081,
      "Like": 7082,
      "vil": 7083,
      "worm": 7084,
      "Ġ2": 7085,
      "Ġreason": 7086,
      "Ġspins": 7087,
      "Ġflight": 7088,
      "ĠRay": 7089,
      "ĠOur": 7090,
      "ĠStay": 7091,
      "Ġsewing": 7092,
      "ĠFrog": 7093,
      "Ġgreeted": 7094,
      "mates": 7095,
      "Ġtiss": 7096,
      "Ġaside": 7097,
      "Ġrushing": 7098,
      "otten": 7099,
      "Ġjoining": 7100,
      "Ġheroes": 7101,
      "Ġbehaving": 7102,
      "ĠBirdy": 7103,
      "Sue": 7104,
      "ĠLove": 7105,
      "unched": 7106,
      "Ġkittens": 7107,
      "attered": 7108,
      "Sammy": 7109,
      "Ġpigeons": 7110,
      "Our": 7111,
      "Some": 7112,
      "stick": 7113,
      "ĠMichael": 7114,
      "ertain": 7115,
      "Ġswans": 7116,
      "Ġwiggle": 7117,
      "fire": 7118,
      "Ġaimed": 7119,
      "Ġdip": 7120,
      "Ġocc": 7121,
      "ĠSpl": 7122,
      "Ġplayroom": 7123,
      "Ġtapped": 7124,
      "Ġdefe": 7125,
      "Ġdresser": 7126,
      "Ġbiting": 7127,
      "years": 7128,
      "Ġpuppet": 7129,
      "lves": 7130,
      "Ġrotten": 7131,
      "Ġonward": 7132,
      "Ġplucked": 7133,
      "Ġappreciation": 7134,
      "vant": 7135,
      "rect": 7136,
      "Ġmoo": 7137,
      "ĠFe": 7138,
      "ĠFire": 7139,
      "Ġcharac": 7140,
      "Ġtrot": 7141,
      "Ġadults": 7142,
      "Ġwrigg": 7143,
      "ĠThatÃ¢": 7144,
      "Ġsparks": 7145,
      "Ġencourag": 7146,
      "Ġsending": 7147,
      "Ġconfl": 7148,
      "Ġtrembled": 7149,
      "Ġscampered": 7150,
      "Ġcharacter": 7151,
      "Fo": 7152,
      "iment": 7153,
      "Ġscored": 7154,
      "Ġexplo": 7155,
      "Ġoffic": 7156,
      "eezes": 7157,
      "ĠBaa": 7158,
      "ĠLouise": 7159,
      "Ġspat": 7160,
      "Ġcoc": 7161,
      "ÅĵNow": 7162,
      "Ġwarri": 7163,
      "Ġhops": 7164,
      "meal": 7165,
      "Ġbells": 7166,
      "Ġflavors": 7167,
      "Ġmaster": 7168,
      "ĠMaddy": 7169,
      "Every": 7170,
      "Ġwaddled": 7171,
      "Ġdaring": 7172,
      "Ġconvers": 7173,
      "Ġstrongest": 7174,
      "Ġdrawers": 7175,
      "Ġpanicked": 7176,
      "Ġguests": 7177,
      "ĠSimon": 7178,
      "while": 7179,
      "Ġtossed": 7180,
      "Ġpins": 7181,
      "Ġnapping": 7182,
      "Ġmanag": 7183,
      "ĠMomma": 7184,
      "Ġrainy": 7185,
      "Ġamount": 7186,
      "Ġworrying": 7187,
      "ĠUnder": 7188,
      "Ġstacked": 7189,
      "Ġperforming": 7190,
      "Ġoatmeal": 7191,
      "Ġcausing": 7192,
      "cky": 7193,
      "Ġscen": 7194,
      "Ġwobbly": 7195,
      "ÅĵMy": 7196,
      "Ġrespected": 7197,
      "Ġsunflowers": 7198,
      "Ġproper": 7199,
      "rrr": 7200,
      "Ġfreedom": 7201,
      "Ġnoodles": 7202,
      "Mine": 7203,
      "ĠTry": 7204,
      "Ġmate": 7205,
      "Ġevil": 7206,
      "ĠWell": 7207,
      "ĠWendy": 7208,
      "retty": 7209,
      "ĠFlopsy": 7210,
      "Ġangels": 7211,
      "Ġloading": 7212,
      "Alice": 7213,
      "Ġseashells": 7214,
      "Ġgest": 7215,
      "Ġsadd": 7216,
      "ĠMina": 7217,
      "Ġbattle": 7218,
      "ĠUp": 7219,
      "...\"": 7220,
      "Ġcorrect": 7221,
      "isc": 7222,
      "Ġstitches": 7223,
      "Ġgardener": 7224,
      "Ġlessons": 7225,
      "Ġprove": 7226,
      "Ġrespond": 7227,
      "ĠDani": 7228,
      "ppies": 7229,
      "Ġdoorway": 7230,
      "Ġcraft": 7231,
      "Ġtables": 7232,
      "Ġcloudy": 7233,
      "Ġshrug": 7234,
      "ĠZero": 7235,
      "Ġcushions": 7236,
      "ĠCurious": 7237,
      "Ġunsure": 7238,
      "Ġfaded": 7239,
      "onna": 7240,
      "Ġworn": 7241,
      "ĠDes": 7242,
      "Ġbravest": 7243,
      "Ġgrows": 7244,
      "Ġleads": 7245,
      "ĠAshley": 7246,
      "Ġwatering": 7247,
      "iley": 7248,
      "ÅĵMom": 7249,
      "ĠRock": 7250,
      "Ġrains": 7251,
      "ĠJaney": 7252,
      "Ġcrashing": 7253,
      "Ġduckling": 7254,
      "Ġaction": 7255,
      "ĠZoomy": 7256,
      "Ġfrowning": 7257,
      "Ġdesigns": 7258,
      "Ġfirefly": 7259,
      "Ġfirmly": 7260,
      "Ġcoral": 7261,
      "Ġearn": 7262,
      "Ġund": 7263,
      "ĠAna": 7264,
      "Ġclues": 7265,
      "Ġsmallest": 7266,
      "Ġmonths": 7267,
      "Ġsails": 7268,
      "Ġsurv": 7269,
      "Johnny": 7270,
      "Ġtwisty": 7271,
      "Ġwider": 7272,
      "Ġdefin": 7273,
      "Ġpassengers": 7274,
      "Ġtissue": 7275,
      "please": 7276,
      "hew": 7277,
      "Ġais": 7278,
      "Ġheight": 7279,
      "Ġcosy": 7280,
      "bbling": 7281,
      "ĠJoan": 7282,
      "Ġpolitely": 7283,
      "Ġpays": 7284,
      "Ġnervously": 7285,
      "Ġhumans": 7286,
      "ĠMean": 7287,
      "ĠQuick": 7288,
      "Ġbehavior": 7289,
      "dress": 7290,
      "ĠMouse": 7291,
      "Ġbru": 7292,
      "Ġovercome": 7293,
      "urprise": 7294,
      "Ġbelts": 7295,
      "Ġstreamers": 7296,
      "Ġrobber": 7297,
      "Ġencouraging": 7298,
      "Ġties": 7299,
      "onies": 7300,
      "Ġplaytime": 7301,
      "child": 7302,
      "Ġflown": 7303,
      "emma": 7304,
      "Ġdrivers": 7305,
      "Ġsurrendered": 7306,
      "ody": 7307,
      "Ġgonna": 7308,
      "ening": 7309,
      "ĠHoney": 7310,
      "ĠSof": 7311,
      "Ġnearly": 7312,
      "ĠStar": 7313,
      "Ġpumpkins": 7314,
      "Ġgrandchild": 7315,
      "Ġfleas": 7316,
      "Ġyielded": 7317,
      "Ġmerma": 7318,
      "Ġdefinitely": 7319,
      "bird": 7320,
      "Ġni": 7321,
      "Ġinj": 7322,
      "Ġpoppies": 7323,
      "iona": 7324,
      "Ġcrossing": 7325,
      "undred": 7326,
      "Ġtravelling": 7327,
      "Follow": 7328,
      "Ġtuck": 7329,
      "Ġnuzz": 7330,
      "Ġyel": 7331,
      "ĠthatÃ¢": 7332,
      "Ġshady": 7333,
      "ÅĵWell": 7334,
      "Ġraces": 7335,
      "Ġblocked": 7336,
      "Ġlifting": 7337,
      "ĠStill": 7338,
      "Ġlaying": 7339,
      "Ġignoring": 7340,
      "Ġshovels": 7341,
      "Ġquarreling": 7342,
      "alloween": 7343,
      "Ġperformed": 7344,
      "ĠMeanwhile": 7345,
      "lets": 7346,
      "Ġease": 7347,
      "ĠIm": 7348,
      "ĠBow": 7349,
      "ĠBong": 7350,
      "Ġscient": 7351,
      "antastic": 7352,
      "Ġwobble": 7353,
      "athy": 7354,
      "issa": 7355,
      "Ġresults": 7356,
      "Ġsuggestion": 7357,
      "Beep": 7358,
      "Ġsuits": 7359,
      "Ġcampfire": 7360,
      "Ġbrushing": 7361,
      "Ġsymbols": 7362,
      "Ġtwinkled": 7363,
      "Quick": 7364,
      "Ġcommun": 7365,
      "Ġyelped": 7366,
      "Ġscientist": 7367,
      "Lisa": 7368,
      "Very": 7369,
      "Watch": 7370,
      "ibbit": 7371,
      "upt": 7372,
      "rey": 7373,
      "ĠHalloween": 7374,
      "eling": 7375,
      "Ġshown": 7376,
      "Ġreun": 7377,
      "roken": 7378,
      "Ġscurry": 7379,
      "Ġleapt": 7380,
      "aby": 7381,
      "Ġpound": 7382,
      "Ġponies": 7383,
      "acles": 7384,
      "Ġcolder": 7385,
      "Ġquieter": 7386,
      "Ġappreciated": 7387,
      "ĠChris": 7388,
      "Jen": 7389,
      "fly": 7390,
      "Ġbless": 7391,
      "ighting": 7392,
      "Ġwaterfall": 7393,
      "Ġfinal": 7394,
      "Ġsqueezing": 7395,
      "Ġfills": 7396,
      "Ġhairdress": 7397,
      "Ġfishes": 7398,
      "Ġcobwebs": 7399,
      "Ġthorns": 7400,
      "Ġsnowflakes": 7401,
      "abby": 7402,
      "Ġfantastic": 7403,
      "ĠFu": 7404,
      "Ġsurprising": 7405,
      "Ġtricycle": 7406,
      "Ġedges": 7407,
      "Ġpreparing": 7408,
      "Ġgrandd": 7409,
      "Ġreversed": 7410,
      "Ġpunishment": 7411,
      "Ġofficers": 7412,
      "ĠBongo": 7413,
      "Ġanger": 7414,
      "Ġfinishing": 7415,
      "Ġchopped": 7416,
      "Ġpaths": 7417,
      "Ġgenie": 7418,
      "ĠPatch": 7419,
      "Ġpassports": 7420,
      "Listen": 7421,
      "ooky": 7422,
      "ĠFiona": 7423,
      "Ġhanding": 7424,
      "Ġtighter": 7425,
      "Ġpaintbrush": 7426,
      "Ġloops": 7427,
      "Ġburying": 7428,
      "Ġsuffered": 7429,
      "ĠEliz": 7430,
      "ĠPippa": 7431,
      "Ġoccas": 7432,
      "ĠDespite": 7433,
      "Ġhairdresser": 7434,
      "Ġsever": 7435,
      "ĠJax": 7436,
      "Ġslither": 7437,
      "Ġbraver": 7438,
      "Ġunw": 7439,
      "Ġhealing": 7440,
      "Ġdistract": 7441,
      "Ġbandages": 7442,
      "Ġgiggles": 7443,
      "Joe": 7444,
      "Ġreminding": 7445,
      "ĠPepper": 7446,
      "Ġdisturbing": 7447,
      "ĠSnowman": 7448,
      "Ġechoed": 7449,
      "Bun": 7450,
      "rup": 7451,
      "ĠX": 7452,
      "Ġtying": 7453,
      "Ġgap": 7454,
      "ppa": 7455,
      "ĠBecause": 7456,
      "Ġnotes": 7457,
      "Ġforests": 7458,
      "Ġsmelling": 7459,
      "ĠKelly": 7460,
      "Ġbaskets": 7461,
      "Ġsniffing": 7462,
      "Ġsurfing": 7463,
      "Ġsurfboard": 7464,
      "laying": 7465,
      "Ġseveral": 7466,
      "cent": 7467,
      "Ġcertain": 7468,
      "ÅĵWhere": 7469,
      "Ġcleaner": 7470,
      "Ġcollap": 7471,
      "Ġfits": 7472,
      "ĠQuackers": 7473,
      "Ġconnected": 7474,
      "Ġsyrup": 7475,
      "Ġtipped": 7476,
      "Ġsou": 7477,
      "Ġcongratul": 7478,
      "Ġrays": 7479,
      "rier": 7480,
      "ĠJackie": 7481,
      "Ġsnort": 7482,
      "ĠGreen": 7483,
      "ÅĵIf": 7484,
      "Ġspits": 7485,
      "Ġlicking": 7486,
      "Ġrisks": 7487,
      "Ġconflict": 7488,
      "Ġhundred": 7489,
      "Ġcoug": 7490,
      "Ġmaker": 7491,
      "ĠCle": 7492,
      "ĠPretty": 7493,
      "Ġstopping": 7494,
      "Ġsweetest": 7495,
      "ushed": 7496,
      "Ġpackages": 7497,
      "Ġpuzzled": 7498,
      "Ġseller": 7499,
      "Ġtravels": 7500,
      "ĠFroggy": 7501,
      "Ġcottage": 7502,
      "iscuit": 7503,
      "Em": 7504,
      "broken": 7505,
      "vroom": 7506,
      "inger": 7507,
      "ĠIzzy": 7508,
      "Ġspooky": 7509,
      "Ġconqu": 7510,
      "Ġdrown": 7511,
      "Ġbelieving": 7512,
      "Ġships": 7513,
      "Ġexamining": 7514,
      "Ġmagnif": 7515,
      "Ġbreathing": 7516,
      "Ġsqueaked": 7517,
      "Ġpurr": 7518,
      "Ġefforts": 7519,
      "bage": 7520,
      "ca": 7521,
      "erm": 7522,
      "ĠAva": 7523,
      "ÅĵBut": 7524,
      "ÅĵOkay": 7525,
      "ÅĵOf": 7526,
      "athan": 7527,
      "Ġmailed": 7528,
      "Ġgarbage": 7529,
      "Ġcuddles": 7530,
      "ĠSofia": 7531,
      "Surprise": 7532,
      "Wh": 7533,
      "rian": 7534,
      "Ġprob": 7535,
      "Ġslipping": 7536,
      "Ġfrowns": 7537,
      "Ġlending": 7538,
      "Ġwhispering": 7539,
      "Ġsuffering": 7540,
      "Ġprobably": 7541,
      "cher": 7542,
      "Ġlent": 7543,
      "ading": 7544,
      "Ġshoo": 7545,
      "ĠDin": 7546,
      "asty": 7547,
      "ĠRain": 7548,
      "Ġelf": 7549,
      "Ġbuses": 7550,
      "ĠAli": 7551,
      "ĠStart": 7552,
      "Ġaddress": 7553,
      "Ġtubes": 7554,
      "Ġinchworm": 7555,
      "Ġmermaid": 7556,
      "Mary": 7557,
      "line": 7558,
      "isions": 7559,
      "onse": 7560,
      "ĠAlly": 7561,
      "Ġthoughts": 7562,
      "inkle": 7563,
      "Ġguide": 7564,
      "Ġplanting": 7565,
      "Ġresponse": 7566,
      "Ġspells": 7567,
      "Ġrepeating": 7568,
      "Ġbothering": 7569,
      "ĠJean": 7570,
      "ĠKevin": 7571,
      "Ġgears": 7572,
      "Ġarranged": 7573,
      "ĠFeeling": 7574,
      "?!\"": 7575,
      "Amy": 7576,
      "Cl": 7577,
      "In": 7578,
      "but": 7579,
      "ĠOkay": 7580,
      "Ġdump": 7581,
      "Ġexcept": 7582,
      "Ġmemb": 7583,
      "Ġcharge": 7584,
      "Ġtablet": 7585,
      "Ġhumming": 7586,
      "ĠMarie": 7587,
      "Ġsharks": 7588,
      "Ġmasterp": 7589,
      "Ġforgiving": 7590,
      "Ġtrotted": 7591,
      "Ġgesture": 7592,
      "Ġmembers": 7593,
      "found": 7594,
      "ĠAny": 7595,
      "Ġcoach": 7596,
      "Ġfins": 7597,
      "Ġluckily": 7598,
      "Ġresponsib": 7599,
      "Ġsewed": 7600,
      "Ġdamaged": 7601,
      "Ġcustomers": 7602,
      "Ġgrip": 7603,
      "Ġtil": 7604,
      "utter": 7605,
      "Ġrather": 7606,
      "Ġwithin": 7607,
      "Ġgoodby": 7608,
      "Ġdecisions": 7609,
      "bba": 7610,
      "Ġexplorer": 7611,
      "Ġdriveway": 7612,
      "Ġchocolates": 7613,
      "Ġsupported": 7614,
      "Ġinstruments": 7615,
      "Vroom": 7616,
      "Ġwasting": 7617,
      "Ġlies": 7618,
      "âĤ¬,": 7619,
      "Ġwhose": 7620,
      "antha": 7621,
      "Ġcotton": 7622,
      "Ġannoyed": 7623,
      "Ġgoodbyes": 7624,
      "ĠSatur": 7625,
      "ĠBarry": 7626,
      "Ġsoaking": 7627,
      "Ġweeds": 7628,
      "Ġknots": 7629,
      "ĠFighting": 7630,
      "Ġunderstands": 7631,
      "ĠStitch": 7632,
      "Ġantic": 7633,
      "Ġrotting": 7634,
      "Ġvehicles": 7635,
      "Ġpupils": 7636,
      "Ġaccomplished": 7637,
      "ĠAngel": 7638,
      "Ġnurses": 7639,
      "ĠSplash": 7640,
      "Ġwarrior": 7641,
      "Ġreunited": 7642,
      "ĠFuzzy": 7643,
      "ĠSaturday": 7644,
      "Get": 7645,
      "ĠTy": 7646,
      "ĠHolly": 7647,
      "Ġreapp": 7648,
      "Ġalthough": 7649,
      "Ġpeas": 7650,
      "Ġteles": 7651,
      "Ġcheers": 7652,
      "Ġdangers": 7653,
      "ails": 7654,
      "Ġcalmly": 7655,
      "Ġrobots": 7656,
      "ĠPeppa": 7657,
      "Ġnovels": 7658,
      "ĠExcitedly": 7659,
      "ĠDaniel": 7660,
      "Ġtelescope": 7661,
      "Ġmood": 7662,
      "Ġstumble": 7663,
      "asers": 7664,
      "Ġnewfound": 7665,
      "Ġtweet": 7666,
      "Ġfocus": 7667,
      "ilda": 7668,
      "ĠPh": 7669,
      "acle": 7670,
      "Ġelbow": 7671,
      "Ġdespite": 7672,
      "Ġstomp": 7673,
      "Ġdiscussing": 7674,
      "Ġmaterial": 7675,
      "Ġcowboy": 7676,
      "mies": 7677,
      "ĠHelen": 7678,
      "Ġheartbroken": 7679,
      "Ġrescu": 7680,
      "Joey": 7681,
      "Ġcrowns": 7682,
      "Ġwisely": 7683,
      "Ġtwisting": 7684,
      "Ġpermitted": 7685,
      "steps": 7686,
      "Ġconversation": 7687,
      "ooking": 7688,
      "Ġchanges": 7689,
      "Ġswo": 7690,
      "Ġbuddy": 7691,
      "Ġbelongings": 7692,
      "Ġwhistles": 7693,
      "Ġtidied": 7694,
      "Ġclassmates": 7695,
      "ĠMegan": 7696,
      "Ġspills": 7697,
      "crow": 7698,
      "Ġtar": 7699,
      "Ġdarl": 7700,
      "ĠMother": 7701,
      "dding": 7702,
      "ĠPu": 7703,
      "Ġbits": 7704,
      "ugging": 7705,
      "Ġteachers": 7706,
      "Ġfootsteps": 7707,
      "Ġguessing": 7708,
      "Ġawoke": 7709,
      "Ġwealth": 7710,
      "Ġcrystals": 7711,
      "Ġexplains": 7712,
      "ĠRobo": 7713,
      "Ġrefuse": 7714,
      "Ġreassured": 7715,
      "Ġmasterpiece": 7716,
      "Ġswollen": 7717,
      "Ġdarlings": 7718,
      "iens": 7719,
      "wise": 7720,
      "Ġaim": 7721,
      "rie": 7722,
      "ĠMaisy": 7723,
      "Ġaliens": 7724,
      "Ġdecl": 7725,
      "ÅĵPlease": 7726,
      "Ġvegg": 7727,
      "perate": 7728,
      "Ġprayers": 7729,
      "Ġbracelets": 7730,
      "Ġinsisting": 7731,
      "Ġstudent": 7732,
      "Ġpeeled": 7733,
      "ĠOutside": 7734,
      "Take": 7735,
      "aven": 7736,
      "mered": 7737,
      "Ġdot": 7738,
      "Ġgerm": 7739,
      "ĠSk": 7740,
      "Ġnasty": 7741,
      "ĠLina": 7742,
      "Ġrin": 7743,
      "ammy": 7744,
      "Ġscent": 7745,
      "Ġvines": 7746,
      "Ġfigures": 7747,
      "ĠPeggy": 7748,
      "Ġspeeding": 7749,
      "Ġnibbled": 7750,
      "aa": 7751,
      "Ġsill": 7752,
      "Ġspies": 7753,
      "Ġflipped": 7754,
      "Ġtroubles": 7755,
      "Ġtoolbox": 7756,
      "Ġsolving": 7757,
      "Ġencount": 7758,
      "Ġvibr": 7759,
      "ĠSeeing": 7760,
      "Ġseagulls": 7761,
      "Ġnibble": 7762,
      "whe": 7763,
      "rest": 7764,
      "Ġform": 7765,
      "Ġtreated": 7766,
      "Ġchilly": 7767,
      "Ġuntied": 7768,
      "Ġbeautifully": 7769,
      "Ġstored": 7770,
      "Ġtoward": 7771,
      "Ġbusiness": 7772,
      "Ġemer": 7773,
      "ĠOther": 7774,
      "Ġcomforting": 7775,
      "Ġartwork": 7776,
      "ĠKaty": 7777,
      "Alright": 7778,
      "Ġtarget": 7779,
      "lor": 7780,
      "ĠTiger": 7781,
      "ider": 7782,
      "order": 7783,
      "chy": 7784,
      "Ġexch": 7785,
      "Ġbirdhouse": 7786,
      "ĠSamantha": 7787,
      "aula": 7788,
      "sol": 7789,
      "Ġunfortunately": 7790,
      "Ġafar": 7791,
      "ĠBubba": 7792,
      "Ġtaped": 7793,
      "Ġexercises": 7794,
      "ĠMae": 7795,
      "ĠNana": 7796,
      "Ġsurvive": 7797,
      "Ġgranddaughter": 7798,
      "Ġcongratulated": 7799,
      "Teddy": 7800,
      "what": 7801,
      "idey": 7802,
      "Ġposit": 7803,
      "Ġmarve": 7804,
      "Goodnight": 7805,
      "Ġhonking": 7806,
      "Ġservant": 7807,
      "Ġbanged": 7808,
      "Ġaware": 7809,
      "Ġstatues": 7810,
      "Ġmosquitoes": 7811,
      "Ġdelayed": 7812,
      "Ġsimply": 7813,
      "Ġinspired": 7814,
      "ĠElsa": 7815,
      "Ġveggies": 7816,
      "Boys": 7817,
      "ĠLion": 7818,
      "Ġforce": 7819,
      "Ġkings": 7820,
      "ĠWin": 7821,
      "Ġturtles": 7822,
      "Ġrats": 7823,
      "Ġsweaty": 7824,
      "five": 7825,
      "father": 7826,
      "ighing": 7827,
      "Ġthanking": 7828,
      "Ġtrans": 7829,
      "ĠPing": 7830,
      "ĠSpidey": 7831,
      "Ġsquished": 7832,
      "ĠFlora": 7833,
      "Ġgazing": 7834,
      "Always": 7835,
      "Ġactivity": 7836,
      "Ġwounds": 7837,
      "ĠStartled": 7838,
      "gain": 7839,
      "pen": 7840,
      "sm": 7841,
      "Ġrely": 7842,
      "Ġloses": 7843,
      "ecca": 7844,
      "Ġmanners": 7845,
      "Ġtapping": 7846,
      "Ġuntie": 7847,
      "Ġapologised": 7848,
      "ĠMaddie": 7849,
      "we": 7850,
      "Ġtoss": 7851,
      "Ġdep": 7852,
      "onnie": 7853,
      "elvet": 7854,
      "Ġsmashed": 7855,
      "Ġjars": 7856,
      "Ġspy": 7857,
      "Ġjoins": 7858,
      "ipes": 7859,
      "Ġfoxes": 7860,
      "Ġscram": 7861,
      "Ġsweep": 7862,
      "Ġlabels": 7863,
      "Ġbeeped": 7864,
      "ĠRufus": 7865,
      "Ġscurrying": 7866,
      "Ġemerged": 7867,
      "Mandy": 7868,
      "Ġbitten": 7869,
      "ĠSe": 7870,
      "orter": 7871,
      "ĠDory": 7872,
      "Ġtwenty": 7873,
      "ÅĵThe": 7874,
      "Ġconvin": 7875,
      "ĠSpe": 7876,
      "Ġdressing": 7877,
      "Ġwarmly": 7878,
      "Ġpurpose": 7879,
      "Ġshrunk": 7880,
      "Ġpresented": 7881,
      "Ġpleaded": 7882,
      "Ġcurl": 7883,
      "Ġghosts": 7884,
      "Ġpandas": 7885,
      "ĠRudy": 7886,
      "Ġflaps": 7887,
      "ĠJonny": 7888,
      "Ġoppos": 7889,
      "Ġconcert": 7890,
      "Ġcorrectly": 7891,
      "Ġhen": 7892,
      "Ġstall": 7893,
      "Ġsped": 7894,
      "ĠEver": 7895,
      "Ġsquaw": 7896,
      "ivia": 7897,
      "Ġtires": 7898,
      "Ġencouragement": 7899,
      "Ġswaying": 7900,
      "Ġwrinkled": 7901,
      "Ġaisle": 7902,
      "Ġanticip": 7903,
      "Ġrowed": 7904,
      "Ġbea": 7905,
      "elie": 7906,
      "ortun": 7907,
      "Ġjud": 7908,
      "Ġnests": 7909,
      "Ġtrusting": 7910,
      "ĠZee": 7911,
      "Ġprick": 7912,
      "Ġmagazines": 7913,
      "ĠVelvet": 7914,
      "Ġglittering": 7915,
      "ĠTessa": 7916,
      "ummies": 7917,
      "Ġopportun": 7918,
      "ĠLiam": 7919,
      "Ġnearest": 7920,
      "Ġtransf": 7921,
      "ats": 7922,
      "Ġsav": 7923,
      "Ġinter": 7924,
      "Ġramp": 7925,
      "Ġcleared": 7926,
      "Ġtasting": 7927,
      "Ġpicnics": 7928,
      "ĠFreddie": 7929,
      "Ġgrandfather": 7930,
      "Ġotters": 7931,
      "Ġpedaled": 7932,
      "Ġwiggly": 7933,
      "Ġtype": 7934,
      "Ġnuzzled": 7935,
      "Ġrescuing": 7936,
      "Ġopposite": 7937,
      "Ġgall": 7938,
      "ators": 7939,
      "Ġshimmering": 7940,
      "ĠAlf": 7941,
      "Ġloc": 7942,
      "ĠgirlÃ¢": 7943,
      "ddie": 7944,
      "Ġblond": 7945,
      "roll": 7946,
      "ĠCara": 7947,
      "ÅĵHey": 7948,
      "ĠSpring": 7949,
      "ĠDog": 7950,
      "Ġswimmer": 7951,
      "Ġadds": 7952,
      "Ġcovering": 7953,
      "Ġscarecrow": 7954,
      "Ġwindowsill": 7955,
      "ĠRoger": 7956,
      "Ġdisplayed": 7957,
      "Ġuniforms": 7958,
      "Ġswayed": 7959,
      "intment": 7960,
      "Leave": 7961,
      "Ġcocoon": 7962,
      "Ġdeclared": 7963,
      "Ġanticipation": 7964,
      "Fl": 7965,
      "mo": 7966,
      "rily": 7967,
      "its": 7968,
      "idence": 7969,
      "ĠSw": 7970,
      "ĠHope": 7971,
      "amma": 7972,
      "acy": 7973,
      "Ġvisits": 7974,
      "Ġdesigning": 7975,
      "screen": 7976,
      "Ġlipstick": 7977,
      "Ġdodged": 7978,
      "Ġhoo": 7979,
      "ĠSl": 7980,
      "Ġbeating": 7981,
      "ĠJojo": 7982,
      "Ġends": 7983,
      "Ġdoorbell": 7984,
      "Ġdisc": 7985,
      "ĠElle": 7986,
      "ĠBecky": 7987,
      "Ġdiscoveries": 7988,
      "Ġpurrs": 7989,
      "Ġattacked": 7990,
      "Ġsadder": 7991,
      "Ġcollapsed": 7992,
      "Ġscrambled": 7993,
      "So": 7994,
      "Tw": 7995,
      "munk": 7996,
      "Ġtumbled": 7997,
      "ĠTime": 7998,
      "ĠTerry": 7999,
      "Ġsheets": 8000,
      "ĠBrian": 8001,
      "ĠMan": 8002,
      "Ġflick": 8003,
      "Ġflips": 8004,
      "Ġpeep": 8005,
      "Ġjoked": 8006,
      "Ġsnug": 8007,
      "ĠNora": 8008,
      "Ġcracks": 8009,
      "Ġimages": 8010,
      "Ġdecoration": 8011,
      "illiam": 8012,
      "Ġbackpacks": 8013,
      "manda": 8014,
      "ĠPoor": 8015,
      "Ġforgiveness": 8016,
      "Ġroutine": 8017,
      "Ġmanager": 8018,
      "da": 8019,
      "pit": 8020,
      "Ġicing": 8021,
      "Ġtummies": 8022,
      "Ġwhoo": 8023,
      "romise": 8024,
      "ĠWelcome": 8025,
      "Ġfailed": 8026,
      "ĠFort": 8027,
      "Ġswap": 8028,
      "Ġsunscreen": 8029,
      "ĠPaula": 8030,
      "ordinary": 8031,
      "ĠStep": 8032,
      "Ġbathing": 8033,
      "Ġgenerosity": 8034,
      "Ġtoothbrush": 8035,
      "Ġexperienced": 8036,
      "Dear": 8037,
      "water": 8038,
      "Ġting": 8039,
      "Ġyum": 8040,
      "Ġgoodies": 8041,
      "Ġflip": 8042,
      "usty": 8043,
      "Ġgrat": 8044,
      "ĠGret": 8045,
      "ĠGinger": 8046,
      "Ġsingers": 8047,
      "Ġsprout": 8048,
      "Ġbeeh": 8049,
      "Ġobeyed": 8050,
      "ĠCrabby": 8051,
      "Ġencountered": 8052,
      "Ġsens": 8053,
      "Ġheaven": 8054,
      "ĠShelly": 8055,
      "ĠLuc": 8056,
      "ĠAmanda": 8057,
      "Ġnodding": 8058,
      "Ġlapt": 8059,
      "aus": 8060,
      "empt": 8061,
      "ÅĵA": 8062,
      "Ġbadger": 8063,
      "ĠPin": 8064,
      "Ġconv": 8065,
      "boards": 8066,
      "Ġdripping": 8067,
      "Ġadmiration": 8068,
      "ĠFrankie": 8069,
      "Ġsternly": 8070,
      "Ġcustomer": 8071,
      "Ġastronauts": 8072,
      "ĠFortunately": 8073,
      "Ġgratitude": 8074,
      "uel": 8075,
      "ilities": 8076,
      "ative": 8077,
      "anie": 8078,
      "Ġinches": 8079,
      "Ġshall": 8080,
      "ument": 8081,
      "Ġbrightest": 8082,
      "Ġamu": 8083,
      "Ġslowed": 8084,
      "Ġattempt": 8085,
      "Ġminds": 8086,
      "Ġcrawls": 8087,
      "Ġsnaps": 8088,
      "ĠNancy": 8089,
      "Ġconvince": 8090,
      "lied": 8091,
      "erk": 8092,
      "ĠWil": 8093,
      "ĠYouÃ¢": 8094,
      "ddles": 8095,
      "elle": 8096,
      "Ġblown": 8097,
      "ÅĵSee": 8098,
      "Ġstew": 8099,
      "Ġvisitors": 8100,
      "ĠFlo": 8101,
      "ĠBeh": 8102,
      "Ġrobin": 8103,
      "Ġextraordinary": 8104,
      "Ġscooters": 8105,
      "Ġapplauding": 8106,
      "Ġfloats": 8107,
      "Ġmeows": 8108,
      "ĠMonkey": 8109,
      "Ġchipmunk": 8110,
      "ĠBounce": 8111,
      "ĠPhil": 8112,
      "cie": 8113,
      "olp": 8114,
      "ulp": 8115,
      "ances": 8116,
      "ĠWilliam": 8117,
      "Ġsculp": 8118,
      "ĠEddie": 8119,
      "Ġflashed": 8120,
      "Ġexplor": 8121,
      "ĠRuth": 8122,
      "Ġdiso": 8123,
      "Ġfires": 8124,
      "Ġparted": 8125,
      "Ġrecorder": 8126,
      "Ġsoapy": 8127,
      "Ġorders": 8128,
      "Ġlowered": 8129,
      "Ġumbrellas": 8130,
      "Ġgrandson": 8131,
      "Ġmillion": 8132,
      "udolp": 8133,
      "Ġfilms": 8134,
      "ĠOlivia": 8135,
      "ĠJonathan": 8136,
      "Ġmatey": 8137,
      "Ġlaptop": 8138,
      "udolph": 8139,
      "ĠTaking": 8140,
      "ĠSay": 8141,
      "Ġshin": 8142,
      "ÅĵGood": 8143,
      "bee": 8144,
      "ĠAlan": 8145,
      "Ġreminds": 8146,
      "Ġtidying": 8147,
      "Ġbreaths": 8148,
      "Ġpriz": 8149,
      "Ġcheckout": 8150,
      "Ġgoats": 8151,
      "Ġmember": 8152,
      "Ġdiamonds": 8153,
      "Ġscolds": 8154,
      "Ġmeowing": 8155,
      "ĠMelissa": 8156,
      "Ġdrowned": 8157,
      "Ġgerms": 8158,
      "Bang": 8159,
      "ĠSir": 8160,
      "ĠSand": 8161,
      "Ġshorter": 8162,
      "lyn": 8163,
      "Ġswitched": 8164,
      "Ġfond": 8165,
      "ctric": 8166,
      "angle": 8167,
      "Sarah": 8168,
      "Ġbounces": 8169,
      "Ġteams": 8170,
      "Ġscratching": 8171,
      "Ġapplause": 8172,
      "Ġquacking": 8173,
      "Ġinstrument": 8174,
      "Ġbeaming": 8175,
      "Ġmunching": 8176,
      "Ġconduct": 8177,
      "Ġresponded": 8178,
      "Too": 8179,
      "str": 8180,
      "Ġforts": 8181,
      "Ġclicked": 8182,
      "Ġclerk": 8183,
      "ĠJoanna": 8184,
      "Ġsupplied": 8185,
      "Ġtentacles": 8186,
      "Ġterrified": 8187,
      "Ġquestioned": 8188,
      "Ġgroan": 8189,
      "Ġincreasing": 8190,
      "Ġweapons": 8191
    },
    "merges": [
      [
        "h",
        "e"
      ],
      [
        "Ġ",
        "t"
      ],
      [
        "Ġ",
        "a"
      ],
      [
        "Ġ",
        "s"
      ],
      [
        "Ġ",
        "w"
      ],
      [
        "n",
        "d"
      ],
      [
        "Ġt",
        "he"
      ],
      [
        "e",
        "d"
      ],
      [
        "Ġa",
        "nd"
      ],
      [
        "Ġt",
        "o"
      ],
      [
        "Ġ",
        "b"
      ],
      [
        "i",
        "n"
      ],
      [
        "Ġ",
        "h"
      ],
      [
        "Ġw",
        "a"
      ],
      [
        "r",
        "e"
      ],
      [
        "o",
        "u"
      ],
      [
        "Ġ",
        "f"
      ],
      [
        "i",
        "t"
      ],
      [
        "Ġ",
        "T"
      ],
      [
        "Ġ",
        "l"
      ],
      [
        "Ġ",
        "c"
      ],
      [
        "Ġ",
        "d"
      ],
      [
        "e",
        "r"
      ],
      [
        "Ġ",
        "he"
      ],
      [
        "Ġ",
        "m"
      ],
      [
        "Ġ",
        "p"
      ],
      [
        "Ġwa",
        "s"
      ],
      [
        "o",
        "m"
      ],
      [
        "Ġ",
        "o"
      ],
      [
        "ĠT",
        "he"
      ],
      [
        "a",
        "y"
      ],
      [
        "a",
        "r"
      ],
      [
        "i",
        "s"
      ],
      [
        "in",
        "g"
      ],
      [
        "i",
        "l"
      ],
      [
        "Ġ",
        "g"
      ],
      [
        "i",
        "d"
      ],
      [
        "Ġ",
        "S"
      ],
      [
        "a",
        "t"
      ],
      [
        "e",
        "n"
      ],
      [
        "Ġ",
        "n"
      ],
      [
        "Ġs",
        "a"
      ],
      [
        "Ġh",
        "a"
      ],
      [
        "a",
        "n"
      ],
      [
        "i",
        "m"
      ],
      [
        "o",
        "r"
      ],
      [
        "o",
        "n"
      ],
      [
        "Ġ",
        "it"
      ],
      [
        "Ġ",
        "H"
      ],
      [
        "Ġt",
        "h"
      ],
      [
        "l",
        "l"
      ],
      [
        "Ġ",
        "\""
      ],
      [
        "l",
        "e"
      ],
      [
        "o",
        "t"
      ],
      [
        "ĠS",
        "he"
      ],
      [
        "Ġhe",
        "r"
      ],
      [
        "e",
        "t"
      ],
      [
        "i",
        "r"
      ],
      [
        "ĠH",
        "e"
      ],
      [
        "ĠThe",
        "y"
      ],
      [
        "e",
        "s"
      ],
      [
        "Ġ",
        "in"
      ],
      [
        "v",
        "er"
      ],
      [
        "u",
        "t"
      ],
      [
        "o",
        "w"
      ],
      [
        "c",
        "k"
      ],
      [
        "Ġ",
        "L"
      ],
      [
        "Ġ",
        "e"
      ],
      [
        "Ġ",
        "u"
      ],
      [
        "Ġ",
        "y"
      ],
      [
        "l",
        "d"
      ],
      [
        "o",
        "o"
      ],
      [
        "il",
        "y"
      ],
      [
        "Ġsa",
        "id"
      ],
      [
        "i",
        "g"
      ],
      [
        "Ġ",
        "r"
      ],
      [
        "Ġ",
        "I"
      ],
      [
        "Ġb",
        "e"
      ],
      [
        "a",
        "m"
      ],
      [
        "Ġs",
        "t"
      ],
      [
        "k",
        "e"
      ],
      [
        "c",
        "e"
      ],
      [
        "v",
        "e"
      ],
      [
        "it",
        "h"
      ],
      [
        "p",
        "p"
      ],
      [
        "Ġs",
        "he"
      ],
      [
        "Ġw",
        "ith"
      ],
      [
        "O",
        "n"
      ],
      [
        "Ġo",
        "n"
      ],
      [
        "ĠL",
        "ily"
      ],
      [
        "Ġy",
        "ou"
      ],
      [
        "k",
        "ed"
      ],
      [
        "Ġo",
        "f"
      ],
      [
        "r",
        "i"
      ],
      [
        "Ġp",
        "l"
      ],
      [
        "n",
        "t"
      ],
      [
        "Ġh",
        "is"
      ],
      [
        "Ġ",
        "B"
      ],
      [
        "a",
        "d"
      ],
      [
        "Ġs",
        "o"
      ],
      [
        "ver",
        "y"
      ],
      [
        "Ġd",
        "ay"
      ],
      [
        "Ġth",
        "at"
      ],
      [
        "Ġu",
        "p"
      ],
      [
        "Ġpl",
        "ay"
      ],
      [
        "Ġha",
        "d"
      ],
      [
        "Ġthe",
        "y"
      ],
      [
        "s",
        "t"
      ],
      [
        "Ġw",
        "e"
      ],
      [
        "Ġm",
        "om"
      ],
      [
        "Ġf",
        "or"
      ],
      [
        "e",
        "l"
      ],
      [
        "Ġ",
        "M"
      ],
      [
        "u",
        "n"
      ],
      [
        "ou",
        "ld"
      ],
      [
        "'",
        "s"
      ],
      [
        "m",
        "y"
      ],
      [
        "Ġl",
        "i"
      ],
      [
        "c",
        "h"
      ],
      [
        "Ġha",
        "pp"
      ],
      [
        "Ġwa",
        "nt"
      ],
      [
        "en",
        "t"
      ],
      [
        "Ġs",
        "h"
      ],
      [
        "it",
        "t"
      ],
      [
        "he",
        "r"
      ],
      [
        "ou",
        "t"
      ],
      [
        "Ġn",
        "ot"
      ],
      [
        "Ġd",
        "o"
      ],
      [
        "om",
        "e"
      ],
      [
        "s",
        "e"
      ],
      [
        "Ġ",
        "very"
      ],
      [
        "l",
        "y"
      ],
      [
        "e",
        "nd"
      ],
      [
        "a",
        "ll"
      ],
      [
        "ou",
        "nd"
      ],
      [
        "Ġw",
        "h"
      ],
      [
        "Ġ",
        "k"
      ],
      [
        "im",
        "e"
      ],
      [
        "itt",
        "le"
      ],
      [
        "Ġt",
        "ime"
      ],
      [
        "a",
        "l"
      ],
      [
        "Ġl",
        "ittle"
      ],
      [
        "Ġn",
        "e"
      ],
      [
        "Ġthe",
        "re"
      ],
      [
        "h",
        "t"
      ],
      [
        "Ġ",
        "is"
      ],
      [
        "ĠI",
        "t"
      ],
      [
        "Ġhapp",
        "y"
      ],
      [
        "Ġb",
        "ig"
      ],
      [
        "Ġ",
        "A"
      ],
      [
        "Ġ",
        "re"
      ],
      [
        "Ġs",
        "m"
      ],
      [
        "Ġb",
        "ut"
      ],
      [
        "Ġsa",
        "w"
      ],
      [
        "Ġ",
        "Ġ"
      ],
      [
        "Ġa",
        "n"
      ],
      [
        "r",
        "a"
      ],
      [
        "r",
        "y"
      ],
      [
        "ri",
        "end"
      ],
      [
        ".",
        "\""
      ],
      [
        "Ġf",
        "riend"
      ],
      [
        "Ġa",
        "s"
      ],
      [
        "a",
        "ck"
      ],
      [
        "On",
        "e"
      ],
      [
        "id",
        "e"
      ],
      [
        "a",
        "ke"
      ],
      [
        "u",
        "g"
      ],
      [
        "'",
        "t"
      ],
      [
        "!",
        "\""
      ],
      [
        "ĠT",
        "im"
      ],
      [
        "Ġl",
        "oo"
      ],
      [
        "Ġwe",
        "re"
      ],
      [
        "t",
        "er"
      ],
      [
        "v",
        "ed"
      ],
      [
        "Ġl",
        "o"
      ],
      [
        "o",
        "re"
      ],
      [
        "On",
        "ce"
      ],
      [
        "Ġ",
        "One"
      ],
      [
        "Ġs",
        "e"
      ],
      [
        "Ġto",
        "o"
      ],
      [
        "Ġh",
        "im"
      ],
      [
        "Ġb",
        "o"
      ],
      [
        "Ġg",
        "o"
      ],
      [
        "Ġa",
        "re"
      ],
      [
        "e",
        "c"
      ],
      [
        "Ġ",
        "J"
      ],
      [
        "Ġ",
        "j"
      ],
      [
        "Ġwant",
        "ed"
      ],
      [
        "ar",
        "d"
      ],
      [
        "il",
        "l"
      ],
      [
        "ir",
        "l"
      ],
      [
        "Ġthe",
        "m"
      ],
      [
        "Ġup",
        "on"
      ],
      [
        "Ġg",
        "irl"
      ],
      [
        "Ġthe",
        "ir"
      ],
      [
        "Ġ",
        "out"
      ],
      [
        "Ġa",
        "t"
      ],
      [
        "ĠB",
        "en"
      ],
      [
        "i",
        "nd"
      ],
      [
        "u",
        "r"
      ],
      [
        "Ġd",
        "id"
      ],
      [
        "w",
        "ay"
      ],
      [
        "f",
        "u"
      ],
      [
        "Ġs",
        "p"
      ],
      [
        "ĠT",
        "om"
      ],
      [
        "Ġc",
        "ould"
      ],
      [
        "Ġsm",
        "il"
      ],
      [
        "he",
        "n"
      ],
      [
        "Ġha",
        "ve"
      ],
      [
        "a",
        "in"
      ],
      [
        "he",
        "d"
      ],
      [
        "ar",
        "t"
      ],
      [
        "r",
        "om"
      ],
      [
        "Ġe",
        "x"
      ],
      [
        "Ġc",
        "an"
      ],
      [
        "Ġw",
        "ent"
      ],
      [
        "i",
        "c"
      ],
      [
        "Ġa",
        "r"
      ],
      [
        "Ġ",
        "W"
      ],
      [
        "l",
        "p"
      ],
      [
        "oo",
        "d"
      ],
      [
        "fu",
        "l"
      ],
      [
        "ĠB",
        "ut"
      ],
      [
        "Ġfriend",
        "s"
      ],
      [
        "?",
        "\""
      ],
      [
        "h",
        "ing"
      ],
      [
        "Ġn",
        "am"
      ],
      [
        "Ġk",
        "n"
      ],
      [
        "ig",
        "ht"
      ],
      [
        "Ġhe",
        "lp"
      ],
      [
        "Ġs",
        "ay"
      ],
      [
        "Ġa",
        "ll"
      ],
      [
        "on",
        "e"
      ],
      [
        "u",
        "m"
      ],
      [
        "ar",
        "k"
      ],
      [
        "Ġb",
        "ack"
      ],
      [
        "Y",
        "ou"
      ],
      [
        "Ġf",
        "un"
      ],
      [
        "Ġc",
        "l"
      ],
      [
        "a",
        "re"
      ],
      [
        "Ġn",
        "o"
      ],
      [
        "Ġl",
        "e"
      ],
      [
        "ĠTim",
        "my"
      ],
      [
        "o",
        "p"
      ],
      [
        "Ġs",
        "c"
      ],
      [
        "Ġnam",
        "ed"
      ],
      [
        "Ġa",
        "l"
      ],
      [
        "el",
        "t"
      ],
      [
        "ou",
        "g"
      ],
      [
        "Ġm",
        "an"
      ],
      [
        "Ġlo",
        "ved"
      ],
      [
        "s",
        "ide"
      ],
      [
        "Ġsmil",
        "ed"
      ],
      [
        "Ġto",
        "y"
      ],
      [
        "Ġli",
        "ke"
      ],
      [
        "i",
        "ck"
      ],
      [
        "Ġf",
        "elt"
      ],
      [
        "Ġas",
        "ked"
      ],
      [
        "Ġf",
        "e"
      ],
      [
        "Ġs",
        "ome"
      ],
      [
        "Ġse",
        "e"
      ],
      [
        "Ġloo",
        "ked"
      ],
      [
        "Ġm",
        "e"
      ],
      [
        "am",
        "e"
      ],
      [
        "Ġar",
        "ound"
      ],
      [
        "Ġr",
        "o"
      ],
      [
        "om",
        "et"
      ],
      [
        "u",
        "re"
      ],
      [
        "Ġb",
        "r"
      ],
      [
        "Ġb",
        "ir"
      ],
      [
        "g",
        "et"
      ],
      [
        "i",
        "ce"
      ],
      [
        "Ġbo",
        "y"
      ],
      [
        "Ġw",
        "ould"
      ],
      [
        "on",
        "g"
      ],
      [
        "Ġst",
        "art"
      ],
      [
        "a",
        "s"
      ],
      [
        "Ġbir",
        "d"
      ],
      [
        "Ġs",
        "omet"
      ],
      [
        "ing",
        "s"
      ],
      [
        "Ġf",
        "a"
      ],
      [
        "ad",
        "e"
      ],
      [
        "Ġm",
        "ake"
      ],
      [
        "Ġa",
        "g"
      ],
      [
        "Ġwh",
        "at"
      ],
      [
        "Ġw",
        "or"
      ],
      [
        "Ġ",
        "You"
      ],
      [
        "d",
        "d"
      ],
      [
        ",",
        "\""
      ],
      [
        "Ġsay",
        "s"
      ],
      [
        "ĠM",
        "om"
      ],
      [
        "k",
        "ing"
      ],
      [
        "Ġr",
        "an"
      ],
      [
        "Ġa",
        "way"
      ],
      [
        "ow",
        "n"
      ],
      [
        "get",
        "her"
      ],
      [
        "Ġt",
        "re"
      ],
      [
        "Ã",
        "¢"
      ],
      [
        "â",
        "Ĥ"
      ],
      [
        "âĤ",
        "¬"
      ],
      [
        "a",
        "g"
      ],
      [
        "ar",
        "ed"
      ],
      [
        "i",
        "e"
      ],
      [
        "ou",
        "d"
      ],
      [
        "Ġm",
        "ade"
      ],
      [
        "Ġstart",
        "ed"
      ],
      [
        "i",
        "f"
      ],
      [
        "Ġc",
        "ar"
      ],
      [
        "Ġto",
        "gether"
      ],
      [
        "Ġsomet",
        "hing"
      ],
      [
        "Ġc",
        "o"
      ],
      [
        "t",
        "her"
      ],
      [
        "Ġp",
        "ark"
      ],
      [
        "Ġsa",
        "d"
      ],
      [
        "Ġo",
        "ther"
      ],
      [
        "it",
        "ed"
      ],
      [
        "Ġp",
        "ut"
      ],
      [
        "Ġne",
        "w"
      ],
      [
        "Ġf",
        "rom"
      ],
      [
        "e",
        "ll"
      ],
      [
        "Ġh",
        "ug"
      ],
      [
        "Ġ",
        "E"
      ],
      [
        "Ġp",
        "r"
      ],
      [
        "b",
        "le"
      ],
      [
        "Ġag",
        "ain"
      ],
      [
        "oo",
        "k"
      ],
      [
        "Ġex",
        "c"
      ],
      [
        "a",
        "ch"
      ],
      [
        "Ġg",
        "ood"
      ],
      [
        "Ġh",
        "ome"
      ],
      [
        "Ġl",
        "a"
      ],
      [
        "Ġm",
        "u"
      ],
      [
        "Ġ",
        "F"
      ],
      [
        "s",
        "s"
      ],
      [
        "Ġw",
        "hen"
      ],
      [
        "Ġf",
        "l"
      ],
      [
        "ri",
        "ed"
      ],
      [
        "e",
        "p"
      ],
      [
        "Ġwh",
        "o"
      ],
      [
        "es",
        "t"
      ],
      [
        "Ġthe",
        "n"
      ],
      [
        "Ġf",
        "ound"
      ],
      [
        "Ġc",
        "h"
      ],
      [
        "Ġd",
        "ec"
      ],
      [
        "pp",
        "ed"
      ],
      [
        "h",
        "at"
      ],
      [
        "Ġg",
        "et"
      ],
      [
        "Ġwa",
        "l"
      ],
      [
        "Ġplay",
        "ing"
      ],
      [
        "q",
        "u"
      ],
      [
        "Ġs",
        "w"
      ],
      [
        "oug",
        "ht"
      ],
      [
        "n",
        "n"
      ],
      [
        "Ġli",
        "ked"
      ],
      [
        "u",
        "ck"
      ],
      [
        "Ġ",
        "D"
      ],
      [
        "Ġth",
        "ings"
      ],
      [
        "all",
        "y"
      ],
      [
        "p",
        "l"
      ],
      [
        "ou",
        "s"
      ],
      [
        "ĠS",
        "u"
      ],
      [
        "Ġg",
        "ot"
      ],
      [
        "Ġb",
        "l"
      ],
      [
        "Ġexc",
        "ited"
      ],
      [
        "r",
        "o"
      ],
      [
        "ĠS",
        "am"
      ],
      [
        "id",
        "ed"
      ],
      [
        "a",
        "ve"
      ],
      [
        "Ġc",
        "ame"
      ],
      [
        "ar",
        "a"
      ],
      [
        "Ġe",
        "very"
      ],
      [
        "Ġdec",
        "ided"
      ],
      [
        "Ġyou",
        "r"
      ],
      [
        "Ġdo",
        "g"
      ],
      [
        "a",
        "x"
      ],
      [
        "Ġsc",
        "ared"
      ],
      [
        "Ġon",
        "e"
      ],
      [
        "Ġd",
        "own"
      ],
      [
        "u",
        "st"
      ],
      [
        "Ġ",
        "v"
      ],
      [
        "Ġf",
        "ind"
      ],
      [
        "Ġc",
        "are"
      ],
      [
        "nn",
        "a"
      ],
      [
        "ou",
        "se"
      ],
      [
        "a",
        "p"
      ],
      [
        "Ġbe",
        "c"
      ],
      [
        "is",
        "t"
      ],
      [
        "Ġth",
        "an"
      ],
      [
        "n",
        "y"
      ],
      [
        "Ġfe",
        "el"
      ],
      [
        "Ġd",
        "ad"
      ],
      [
        "Ġa",
        "b"
      ],
      [
        "Ġw",
        "ill"
      ],
      [
        "Ġm",
        "y"
      ],
      [
        "ar",
        "n"
      ],
      [
        "Ġloo",
        "k"
      ],
      [
        "ou",
        "r"
      ],
      [
        "Ġg",
        "r"
      ],
      [
        "er",
        "s"
      ],
      [
        "Ġ",
        "ke"
      ],
      [
        "Ġg",
        "ra"
      ],
      [
        "ĠM",
        "ax"
      ],
      [
        "Ġdid",
        "n"
      ],
      [
        "way",
        "s"
      ],
      [
        "es",
        "s"
      ],
      [
        "Ġp",
        "o"
      ],
      [
        "Ġtoy",
        "s"
      ],
      [
        "Ġtoo",
        "k"
      ],
      [
        "f",
        "e"
      ],
      [
        "nd",
        "er"
      ],
      [
        "Ġab",
        "out"
      ],
      [
        "Ġb",
        "all"
      ],
      [
        "Ġal",
        "ways"
      ],
      [
        "Ġl",
        "ot"
      ],
      [
        "Ġmom",
        "my"
      ],
      [
        "an",
        "t"
      ],
      [
        "ĠS",
        "ara"
      ],
      [
        "Ġkn",
        "e"
      ],
      [
        "b",
        "b"
      ],
      [
        "Ġb",
        "u"
      ],
      [
        "Ġtre",
        "e"
      ],
      [
        "is",
        "e"
      ],
      [
        "Ġout",
        "side"
      ],
      [
        "ĠA",
        "nna"
      ],
      [
        "Ġth",
        "ought"
      ],
      [
        "it",
        "e"
      ],
      [
        "Ġm",
        "ore"
      ],
      [
        "Ġt",
        "a"
      ],
      [
        "ĠS",
        "o"
      ],
      [
        "en",
        "ed"
      ],
      [
        "Ġle",
        "arn"
      ],
      [
        "re",
        "t"
      ],
      [
        "Ġh",
        "o"
      ],
      [
        "c",
        "hed"
      ],
      [
        "Ġkn",
        "ow"
      ],
      [
        "ec",
        "i"
      ],
      [
        "Ġp",
        "u"
      ],
      [
        "Ġin",
        "t"
      ],
      [
        "g",
        "ed"
      ],
      [
        "Ġs",
        "or"
      ],
      [
        "ĠW",
        "hen"
      ],
      [
        "Ġc",
        "at"
      ],
      [
        "Ġla",
        "ug"
      ],
      [
        "Ġt",
        "ake"
      ],
      [
        "Ġo",
        "ld"
      ],
      [
        "i",
        "ve"
      ],
      [
        "i",
        "a"
      ],
      [
        "Ġsp",
        "eci"
      ],
      [
        "Ġspeci",
        "al"
      ],
      [
        "Ġkne",
        "w"
      ],
      [
        "Ġan",
        "y"
      ],
      [
        "Ġp",
        "e"
      ],
      [
        "ĠH",
        "er"
      ],
      [
        "dd",
        "en"
      ],
      [
        "f",
        "ter"
      ],
      [
        "a",
        "u"
      ],
      [
        "Ġh",
        "ow"
      ],
      [
        "Ġsor",
        "ry"
      ],
      [
        "Ġt",
        "r"
      ],
      [
        "m",
        "a"
      ],
      [
        "in",
        "k"
      ],
      [
        "Ġsh",
        "ow"
      ],
      [
        "is",
        "h"
      ],
      [
        "dden",
        "ly"
      ],
      [
        "Ġr",
        "un"
      ],
      [
        "Ġs",
        "l"
      ],
      [
        "Ġmu",
        "ch"
      ],
      [
        "Ġt",
        "w"
      ],
      [
        "Ġha",
        "nd"
      ],
      [
        "a",
        "nd"
      ],
      [
        "ĠJ",
        "o"
      ],
      [
        "ĠE",
        "very"
      ],
      [
        "Ġo",
        "r"
      ],
      [
        "Ġh",
        "ouse"
      ],
      [
        "Ġo",
        "p"
      ],
      [
        "Ġm",
        "o"
      ],
      [
        "Ġwa",
        "ter"
      ],
      [
        "Ġs",
        "k"
      ],
      [
        "v",
        "en"
      ],
      [
        "Ġt",
        "ried"
      ],
      [
        "Ġint",
        "o"
      ],
      [
        "Ġs",
        "un"
      ],
      [
        "an",
        "k"
      ],
      [
        "ĠJ",
        "ack"
      ],
      [
        "Ġin",
        "side"
      ],
      [
        "Ġcl",
        "o"
      ],
      [
        "at",
        "e"
      ],
      [
        "he",
        "re"
      ],
      [
        "Ġto",
        "ld"
      ],
      [
        "Ġg",
        "ave"
      ],
      [
        "um",
        "p"
      ],
      [
        "t",
        "y"
      ],
      [
        "Ġpr",
        "oud"
      ],
      [
        "Ġe",
        "ach"
      ],
      [
        "Ġ",
        "qu"
[...]
